#version: 0.2
n i
i e
r z
c z
o w
s t
p o
s z
r a
d z
n a
r o
c h</w>
ni e</w>
s i
n a</w>
w i
rz e
g o</w>
s k
c i
a r
j e
a n
c h
z a
ni e
t e
a ł
l i
si ę</w>
k o
m i
w y
l e
p rze
r e
y ch</w>
t a
dz i
o b
o t
o d
j a
o n
rz y
ó w</w>
y m</w>
a l
k t
a ł</w>
n e
k a
d o</w>
o r
a d
o ś
w ie
ni a</w>
m i</w>
e r
i e</w>
m ie
ż e</w>
b y
e m</w>
a t
w o
kt ó
a j
m o
k i</w>
t y
ł a</w>
c i</w>
k u</w>
n y</w>
ą c
e j</w>
w a
k a</w>
p i
cz y
ł a
r ó
q u
t o</w>
p ow
c j
k ie
d o
r u
qu ot
quot ;</w>
& quot;</w>
l a
p rzy
p a
dz ie
n e</w>
l i</w>
m a
s t</w>
e n
e go</w>
i n
któ r
u j
w sz
k o</w>
r y
o s
p ra
d a
ow a
st a
ro z
p ie
k i
b y</w>
cz e
b i
ci e</w>
ż y
l u
z na
ał a</w>
po d
je st</w>
je d
d y</w>
s a
ł o
c ie
n ych</w>
ł o</w>
ł u
p e
w a</w>
1 9
sk ie
ą c</w>
m u</w>
cz a
u r
o g
s po
o st
l e</w>
c e</w>
ra z</w>
d y
l a</w>
o d</w>
oś ci</w>
p o</w>
@ -
@- @</w>
z y
d e
f i
ł y</w>
c y</w>
k ow
z a</w>
p ro
dzi e</w>
prze z</w>
ne j</w>
c e
w e
ja k</w>
n o
n ą</w>
cj i</w>
s y
ne go</w>
n i</w>
g ł
d ow
sz cz
wi ę
i ch</w>
n ym</w>
o l
oś ć</w>
c a</w>
na j
rz y</w>
t o
ż e
al e</w>
m u
c o</w>
ś ci
m y</w>
sk i</w>
ch o
cz y</w>
t u
. .</w>
p u
ał y</w>
t y</w>
t a</w>
. ..</w>
p ó
z e
sz e
b ie
b u
b e
ni u</w>
je go</w>
m y
wi e</w>
o k
s ie
c y
d u
an y</w>
m e
m a</w>
ro ku</w>
ł ow
k ów</w>
te go</w>
m ó
nie j</w>
pie r
ta k</w>
ał o</w>
wsz y
i m</w>
n ow
z ost
r ę
k u
rz e</w>
j u
je j</w>
2 0
t u</w>
g a
n o</w>
uj e</w>
pow ie
j e</w>
t ym</w>
b a
ł y
o n</w>
on y</w>
cz ę
ko n
skie go</w>
g ra
i st
w ó
pra w
s e
by ł</w>
b o
w z
aj ąc
d la</w>
w ar
j ą</w>
s z</w>
c z</w>
o raz</w>
o na</w>
wszy st
a ch</w>
st y
k ie</w>
ą ł</w>
t ra
u n
g i
mi a
b ra
kie m</w>
b ar
z e</w>
st ę
an e</w>
r i
l o
te m</w>
s ob
dz i</w>
z w
20 0
on e</w>
d ob
j a</w>
ty l
al i</w>
k ą</w>
ju ż</w>
u t
g o
ł ad
g dy</w>
sz y
wie l
skie j</w>
n ości</w>
sk a</w>
ś wi
p ad
któr y</w>
aj ą</w>
st o
mi ę
tyl ko</w>
r a</w>
ą d
d i
s wo
st an
p r
s u
p an
ow i
ci a</w>
w ła
j ę
k ę</w>
ja ko</w>
w s
po d</w>
z i
t e</w>
ę d
j sz
si e</w>
b o</w>
ś ć</w>
y mi</w>
nie m</w>
p ar
si ę
m en
t ow
ra n
ł em</w>
my ś
b li
w o</w>
j s
ni cz
aj ąc</w>
ki ch</w>
s o
s łu
m nie</w>
te j</w>
stę p
ch a
któr e</w>
sz a
któ re
w e</w>
pier wsz
d a</w>
by ło</w>
g i</w>
uj ąc
ó w
s ą</w>
d łu
oś ci
ś ci</w>
t rze
r y</w>
k ra
ń st
st ro
po l
k ró
sk ich</w>
k sz
z ie
w y</w>
m ar
prze d
ró w
m ow
lu b</w>
ą t
pe ł
c ał
cza s</w>
nie jsz
wo j
ra z
te n</w>
ci ą
n ość</w>
mie js
d ru
g e
da w
s a</w>
sa m
dzi ał
ki m</w>
dz y</w>
r ow
st e
f or
pr owa
jed na
J a
k ar
g l
szcz e</w>
p rzy</w>
s er
g ie
dz e
p re
g ó
le ż
b a</w>
mo ż
g a</w>
ró ż
an o</w>
a mi</w>
st ra
n ę
kie go</w>
b ie</w>
h a
z d
sob ie</w>
na d</w>
ow ej</w>
sk im</w>
ni m</w>
st ar
ś mie
mo że</w>
c o
g ru
je szcze</w>
i l
e l
k że</w>
zna j
a by</w>
w od
K a
ob e
i i</w>
P ol
cj a</w>
mi e</w>
li cz
st a</w>
wi ą
sk ie</w>
t ych</w>
cz nie</w>
m at
po s
z o
mó wi
pó ł
by ła</w>
mie sz
ro d
p ły
an ych</w>
jedna k</w>
sz y</w>
rz a</w>
dzi ał</w>
ę ż
ał em</w>
an i</w>
s u</w>
po cz
pe w
d ro
kie j</w>
ł ą
ch od
1 8
s ła
o m
M a
I I</w>
n ę</w>
p at
prze d</w>
C h
owa ć</w>
M i
ni c
mo g
on o</w>
ś cie</w>
pow i
o j
f a
u ro
s p
si ą
sta wi
zost ał</w>
a ć</w>
c u</w>
j i</w>
t r
ni ą</w>
g dy
k ry
cz ne</w>
pi ę
te r
t ów</w>
rz ą
e n</w>
ow y</w>
te ż</w>
by ć</w>
g u</w>
s i</w>
w ał</w>
a m
ko ń
pod ob
pi s
ni ę
c ów</w>
ta kże</w>
ch wi
M ar
g dzie</w>
cy j
a n</w>
bar dz
ow e</w>
kie dy</w>
be z
sz cze
u l
z wy
b ę
ni ch</w>
sz a</w>
ni ka</w>
wa ż
ni k</w>
bardz o</w>
l an
ta ch</w>
wię ksz
s ł
mi ał</w>
A n
ow ych</w>
s w
c u
rz u
P o
re m</w>
ki l
ka ż
g od
we t</w>
g ro
ow a</w>
aj e</w>
t ar
ow ał</w>
któr a</w>
sk o
t ur
ow i</w>
pa n</w>
on ych</w>
w al
k ład
u m</w>
t ro
łow ie
f e
mię dzy</w>
P a
si ad
rzy m
cj ę</w>
na wet</w>
j u</w>
owa nia</w>
ni i</w>
prze ci
dzi ł</w>
li w
ta m</w>
ko le
świ at
st o</w>
cz u
ka ch</w>
st rze
j ąc
19 9
o ł
ó b</w>
n ął</w>
c ja
d ni
e k</w>
t i
z u
uj ą</w>
wie r
któr ych</w>
t ą</w>
nie go</w>
cz łowie
wsz y</w>
cz nych</w>
n ymi</w>
er y
ości ą</w>
u d
ą ć</w>
w i</w>
wa ć</w>
wo l
sz e</w>
sk o</w>
t ru
d e</w>
g u
be z</w>
ni c</w>
ow ie
te re
ł od
s łow
ś wie
ka mi</w>
t ę</w>
s y</w>
o m</w>
i ż</w>
k re
ś nie</w>
l u</w>
st ą
t or
o ko
ok re
rze k
m o</w>
os ob
p y</w>
k ro
c en
st os
a pos
apos ;</w>
& apos;</w>
la t</w>
sk u
k t</w>
a u
czy ł</w>
ka za
na stęp
n u
ko na
po r
s em</w>
p y
W i
po li
sk a
bę dzie</w>
jed y
ow ego</w>
pó ź
u ży
c ą</w>
które j</w>
e le
sk ą</w>
by ły</w>
wię c</w>
ko m
sty cz
ś my</w>
gł ów
na u
L i
nie ż</w>
L e
ci u</w>
K o
mie ni
ch i
a ż</w>
uj ąc</w>
st wa</w>
r .</w>
le cz</w>
0 0</w>
t wo
a m</w>
Z a
pra c
cz er
ka ń
ci ł</w>
ś cie
k się
moż na</w>
bu dow
rów nież</w>
d ł</w>
N a
roz u
ó ł</w>
śmie r
ł e
b ro
ło ż
obe c
szcz ę
znaj d
ko bie
owa nie</w>
dzie j</w>
ro dzi
w er
k la
or y
ja k
na leż
da le
któr ym</w>
na d
ow ą</w>
S z
cz a</w>
cią g
ró d</w>
d en
19 4
ra l
b ym</w>
cj e</w>
myś l
o na
z m
d ot
h i
wszyst ko</w>
powi ad
re sz
ow ie</w>
wią z
g ł</w>
stan owi
sa m</w>
W ie
ch ci
o p
które go</w>
F ran
d nia</w>
te k</w>
R e
dzi ć</w>
N ie
pan i</w>
b ęd
wi ad
pod czas</w>
J e
on ą</w>
k rzy
c ki</w>
ó r
w em</w>
ni ż</w>
wła s
t rz
ąc e</w>
i a</w>
c er
ch a</w>
cz ny</w>
wię c
sz ko
ni ków</w>
cz nej</w>
wi a
na z
ch e
b er
m ał
s pra
ą d</w>
ch u</w>
k sią
s ły
l at
kt y
dz e</w>
g ar
ow ym</w>
ro bi
z ł
l ot
z y</w>
sie bie</w>
kt o
or a</w>
m łod
od powie
ł on
P i
któ rzy</w>
A r
o fi
wy d
ni cy</w>
p ła
h e
le k
bar dziej</w>
mia st</w>
ńst wa</w>
prowa dz
przy ja
dze nia</w>
ob o
a nia</w>
po ś
sz u
j m
19 8
ro dow
ne k</w>
te raz</w>
ga ni
h ist
W ar
le m</w>
czy ć</w>
st em</w>
w .</w>
po t
r ą
ąc y</w>
z ar
za ś</w>
S ta
dzie l
ch ow
dob y
ż y</w>
la tach</w>
st ał</w>
jed en</w>
w or
a li
ś li</w>
p er
g ot
dzi ę
st ru
ł u</w>
ost at
an d
B o
ń ski</w>
k ła
sk u</w>
st wo</w>
l ar
ko ści
wie ku</w>
r z</w>
m al
1 0</w>
cho dz
m aj
u li
i m
ż ad
ś li
1 7
ne m</w>
I n
po siad
ó d</w>
mi ł
w an
za m
B i
ch y
po m
da ć</w>
rz ę
pow od
ka z
ż a</w>
mi ę</w>
le g
cza sie</w>
cho dzi</w>
wszyst kie</w>
ś l
on ym</w>
przeci w
wsz e</w>
od e
sze dł</w>
sta nie</w>
cz ar
ja wi
owa na</w>
a k
ur .</w>
wie le</w>
st y</w>
na s</w>
pu bli
g ę</w>
m an
mi mo</w>
ży ł</w>
po sta
wz gl
t ał
t wa</w>
wy ż
cz nego</w>
więc ej</w>
stą pi
st u
sz ą</w>
W y
s ów</w>
si l
ob a
og ra
na ch</w>
c kiego</w>
st u</w>
ksią ż
al bo</w>
g or
lu dzi</w>
w ró
ję zy
te dy</w>
on ej</w>
owa rzy
le p
L u
rzek ł</w>
j ąc</w>
ży cia</w>
h o
ni ć</w>
ro dz
raz em</w>
nie nia</w>
po tem</w>
wszyst kich</w>
in nych</w>
po z
że by</w>
l ę</w>
pię k
r e</w>
ni a
cze nie</w>
ń skiego</w>
fi l
pocz ąt
f un
po ko
zost ała</w>
p a</w>
ko l
p la
jed no
& #
m niej</w>
na g
s pe
k an
1 2
ar ty
mi ni
cz e</w>
sz ych</w>
d la
cze nia</w>
s ą
B a
je m
ro b
ws pół
p .</w>
mu si
za wsze</w>
or gani
g mi
ra c
ó ł
S a
t nie</w>
19 7
on ego</w>
ch ło
s cy</w>
g os
póź niej</w>
R o
ad y</w>
M e
po trze
ot y</w>
M o
n ów</w>
sa mo
w ał
R a
i n</w>
cz ego</w>
pierwsz y</w>
wo je
ra k
é j</w>
s ób</w>
w ała</w>
b og
że li</w>
d od
czer w
ąc ych</w>
je śli</w>
wi at
kole j
d wa</w>
wzgl ęd
n ku</w>
chwi li</w>
ow o</w>
po mo
ś ród</w>
a nie</w>
gł ę
z wiąz
ni ł</w>
sz czy
War sza
h e</w>
no c
ł at
dzie ć</w>
A l
spo sób</w>
ol og
mi ała</w>
19 3
po zy
miejs ce</w>
miejs c
ro k</w>
j ę</w>
d wó
d wie</w>
B e
po łu
szcze gó
ni gdy</w>
an ą</w>
cj ą</w>
m ęż
b ry
pro du
P ar
mu zy
cz nym</w>
d ę</w>
d rze
s praw
co ś</w>
do mu</w>
każ d
gdy by</w>
ci ę
T e
jak by</w>
an ego</w>
pa ra
ając e</w>
p al
n ąć</w>
z er
l nie</w>
an ej</w>
ś wię
któr ą</w>
la z
poli ty
mó gł</w>
ksz tał
po zna
t wa
z doby
cz ej</w>
ow any</w>
u waż
cz ym</w>
w raz</w>
n ością</w>
z da
cz na</w>
ko rzy
nie mie
sz ę</w>
wz i
s k</w>
ając y</w>
ł ó
kil ka</w>
r p
le w
t łu
z g
g en
ch y</w>
ko ści</w>
S e
dłu g</w>
rz ąd
ni ę</w>
wy so
mia sta</w>
ja ki
g ą</w>
kró t
go dzi
d ź
cza su</w>
p ró
cze s
t rzy
i a
D e
li śmy</w>
m .
ci ęż
pow st
o czy</w>
t an
g na
s ł</w>
z ji</w>
s ce</w>
ist nie
gł os
pa mię
b ur
te n
c ę</w>
zu peł
in .</w>
we dług</w>
I II</w>
c a
te r</w>
wy m</w>
ra ż
mi st
nie c</w>
n p.</w>
le n
t owarzy
ob ie
19 6
K ra
b ó
l ę
s ji</w>
z wie
ci ć</w>
za ch
zna cz
an ym</w>
i ę</w>
c ka</w>
wy ch</w>
sta w
1 6
świ ad
wa nia</w>
po nie
u wa
dob rze</w>
cza sem</w>
pre z
woj ny</w>
ry w
na zw
b ad
m od
b rze
wła śnie</w>
czy li</w>
g at
czę ści</w>
wła ści
cz o
si ł</w>
ż a
t re
wó j</w>
je żeli</w>
ra ch</w>
d u</w>
Wie l
wo ł
pa na</w>
ży cie</w>
rzy ł</w>
s ło
zwy k
dz y
m on
E uro
na mi</w>
k m</w>
A u
obec nie</w>
wiel u</w>
ni ach</w>
1 5
na m</w>
b or
ja kie
m or
ni k
nie z
pó ł</w>
sz ej</w>
e k
trze ba</w>
g nie
gl ąd
ży ć</w>
D a
mat y
p rz
ow ane</w>
k r
u mie
le gł
n u</w>
w nę
mi i</w>
os ób</w>
czę sto</w>
ńst wo</w>
w rze
19 2
w śród</w>
czy wi
19 5
bli ż
ń skiej</w>
cz ną</w>
swo je</w>
te l
pra wi
sta ć</w>
li z
sob ą</w>
bi or
słu ż
przed stawi
mi l
p le
d w
do l
kt o</w>
nę ła</w>
m. in.</w>
dzie w
l ą
ch ro
te ri
d r
dwó ch</w>
ał a
spo łe
u cz
człowie k</w>
li te
że nie</w>
c kiej</w>
ty tu
sz tu
ta mi</w>
a t</w>
d al
p ę
i t
d ar
p li
spo ko
pu szcz
ch em</w>
sz la
dzie ń</w>
znajd uje</w>
re n
za miesz
n os
cie m</w>
ąc a</w>
cha rak
w tedy</w>
i s
świat a</w>
stro ny</w>
mie nia</w>
wó r
szy b
1 1</w>
pi sa
czę ść</w>
przy pad
N e
sk ład
następ nie</w>
oko ło</w>
wa ż</w>
na r
dzie r
sw ego</w>
ne r
d er
ając ych</w>
o li
Pol sce</w>
ta kie</w>
ni os
wy stęp
przy sz
dzi ś</w>
a ut
sz ego</w>
dze nie</w>
lu dz
st er
du ż
pra wie</w>
dru gie
bez pie
a j</w>
hist or
f ran
sz ym</w>
wie k</w>
rze nia</w>
W a
on u</w>
c em</w>
m ów</w>
ery kań
ku l
roz po
cz łon
by ł
o k</w>
k cji</w>
to r</w>
v i
dzi ała</w>
ując y</w>
spo t
wi do
dzi w
cho ć</w>
P e
kow o</w>
dz ę</w>
jed nym</w>
K on
prez en
a b
ra d
tur y</w>
g ło
ch ał</w>
by li</w>
bi ał
tru d
p ie</w>
czy n
gdy ż</w>
te ry
łą cz
rze czy</w>
ż oł
te le
że nia</w>
n og
wie t
st ów</w>
pier o</w>
Pol ski</w>
ma m</w>
ści a</w>
ze spo
swo ją</w>
ob ro
li ł</w>
wy j
li p
c ały</w>
b u</w>
śmier ci</w>
sk i
d ni</w>
mi ar
ok rę
człowie ka</w>
G e
u zna
t war
ni ku</w>
b owie
st at
wy ra
me t
1 2</w>
l og
mie n
sy j
naj większ
za wie
u s</w>
mi na
do piero</w>
za ło
lu dzie</w>
og ó
bie g
ka ć</w>
s ad
mo c
gó r
w czas</w>
li i</w>
in ne</w>
ie r
am erykań
o s</w>
na rodow
dz a</w>
B og
c kich</w>
py ta
ponie waż</w>
pad a</w>
for ma
wrze ś
mi an
m ają</w>
cja l
ur y</w>
N i
zie mi</w>
po e
w ę
ma g
ge ne
j ął</w>
on i</w>
h u
w pły
ob y</w>
bowie m</w>
d rz
ob y
pu ści
cho dzi
wy da
M u
wią za
t rzym
dzie ci</w>
za czę
dot y
raz y</w>
c ach</w>
o t</w>
ni ki</w>
jedy nie</w>
wó wczas</w>
pe ra
wszy scy</w>
ó r</w>
t rzy</w>
n ost
ta ki</w>
g re
R os
bie ra
na zy
p rę
p u</w>
p lan
swo ich</w>
ś rod
pu n
k wi
kła d</w>
J o
bi t
pra cy</w>
mó j</w>
u cie
rz ał</w>
di i</w>
rzu c
to li
wa nie</w>
po między</w>
e r</w>
g ad
mia sto</w>
rz a
słow a</w>
cze niu</w>
k ał</w>
i z
dz ą</w>
ja kie</w>
sk rzy
H e
ąc ego</w>
ś w.</w>
w spo
u sz
st i
t wo</w>
mówi ł</w>
sk ar
o ła</w>
pro gra
za leż
dzię ki</w>
ta l
u czu
uj ę</w>
g rze
ci ę</w>
f a</w>
t ę
należ y</w>
w ały</w>
żoł nie
pod ar
R u
wnę trz
o r</w>
dłu g
cz ą</w>
świe cie</w>
ra bi
B u
ni kiem</w>
ś pie
k lu
za wod
m ę
k rę
dla tego</w>
200 4</w>
2 0</w>
z now
re d
1 5</w>
ot rzym
jed nego</w>
ró d
z by
za cji</w>
ko ch
kt u</w>
za cz
z robi
dale j</w>
s ar
spo r
rz ch
R ze
kra ju</w>
cie m
t wór
st wo
resz cie</w>
N ie</w>
b ę</w>
je stem</w>
niejsz e</w>
ź dzier
moż li
W e
pra wa</w>
ow ała</w>
dy na
pow o
A m
ując e</w>
le t
ob ra
po zost
bu d
mie ć</w>
sam ym</w>
pro je
d anych</w>
myś li</w>
z mar
1 4
ając a</w>
pa ździer
ra mi</w>
P rze
na to
ot a</w>
oj cie
ws pó
za chod
ła m</w>
pow a
wszyst kim</w>
ka toli
sz ła</w>
Ż y
czy ła</w>
nie nie</w>
de cy
wsz el
sto p
T a
spo j
i le</w>
c kim</w>
zy den
w ro
W il
sz ar
ł ów</w>
ó ż</w>
3 0</w>
cz u</w>
fun k
po łoż
200 7</w>
ro m
si ł
z ło
gł ow
kaza ł</w>
kie ru
T o
peł ni
an g
ot y
h er
i de
w ą</w>
ty le</w>
wa ch</w>
in tere
lu d
każ dy</w>
b ł
ot o</w>
podob nie</w>
zm .</w>
ro n
Nie m
swo im</w>
liw ości</w>
b l
li sto
bi sku
u sz</w>
1 8</w>
niejsz ych</w>
czy z
ni ó
ma ch</w>
k li
znow u</w>
ując ych</w>
&# 9
stra sz
ty j
en i</w>
le pie
kol wiek</w>
no cy</w>
men t</w>
przy czy
jed nost
t ry
z mieni
sta te
dw u
przyja cie
mog ą</w>
pro ce
c ór
sie rp
L a
s pi
czy st
po le
w en
u sta
rze nie</w>
gru py</w>
u czy
S u
cze śnie</w>
c k</w>
s e</w>
miejsc ow
ws chod
fran cu
c oraz</w>
mu si</w>
dru g
rzy ć</w>
S y
d wo
O r
k ur
ta kich</w>
połu dni
sy ste
oś wiad
U ni
w ę</w>
p ł
chci ał</w>
ń ca</w>
s mu
rz u</w>
po spo
wrześ nia</w>
cha ć</w>
ń skich</w>
e j
ch ę</w>
c kie</w>
200 6</w>
kró la</w>
mi li
pa ńst
nie ch</w>
dz ąc</w>
e t
al a</w>
wsz e
dzie dzi
swo jej</w>
rę ce</w>
kow ie</w>
te mu</w>
B er
k wiet
zwy cię
ni z
ko mi
je m</w>
cze ś
kil ku</w>
ra ł</w>
ma wi
sła w</w>
u śmie
miejs cu</w>
N a</w>
cz ki</w>
przy j
wi l
1 0
i um</w>
o nie</w>
u zy
m ę</w>
li n
stę pow
maj a</w>
zupeł nie</w>
P u
pół noc
ce lu</w>
wy kona
rz ęd
mi a</w>
X V
ś ni
ele kt
s en
owi ą
zna laz
za koń
al bu
gie l
pospo li
ot o
ń skim</w>
praw do
re li
stos un
c k
r o</w>
J u
ó g</w>
potrze b
a l</w>
D u
spo sob
ci ła</w>
de r</w>
war t
wie m</w>
rze czywi
po za</w>
ogra fi
D o
no si
nió sł</w>
F i
T y
p .
ni ca</w>
w ra
B ar
kow i
ob owią
prze j
T he</w>
1 3
12 4
po jawi
ż ej</w>
dzie n
di a</w>
dział em</w>
z ie</w>
go ś</w>
za pew
gi i</w>
powie dział</w>
ś le
pi ta
ra b
m ło
miesz kań
sa mi</w>
w ład
ch wy
obe c</w>
wi n
s an
sty tu
C a
1 4</w>
tra n
n .
g an
s wój</w>
rz ost
wie d
tra fi
su k
dłu go</w>
kto r</w>
m em</w>
dru gi</w>
ń ska</w>
sam o</w>
on e
sze ro
pa nie</w>
rze cz</w>
st ała</w>
rze m</w>
począt ku</w>
jed ną</w>
ni mi</w>
dow ó
jed na</w>
ł os
wy pad
ka na
h ar
s .</w>
er a</w>
d ość</w>
d niu</w>
u cze
ma teri
ąc ą</w>
ws i</w>
kow e</w>
raz u</w>
c ami</w>
sy te
K u
ja s
pat rz
sw ej</w>
o f</w>
o powiad
za le
H i
szcz a</w>
spoko j
naj mniej</w>
w obec</w>
da l</w>
jed nej</w>
ąc ym</w>
naj bardziej</w>
aj u</w>
s pa
wy sp
owa niu</w>
zw .</w>
nato miast</w>
z ni
po ję
z god
sie d
Z ie
ko r
S te
szczegó l
200 8</w>
jaki ś</w>
cał ą</w>
kró l</w>
sa ch</w>
nag le</w>
w ąt
pol ski</w>
ch ce</w>
ja ki</w>
or o</w>
myś l</w>
chło p
te ch
wi dzi
H a
h a</w>
na tu
za bi
ch ę
t zw.</w>
zamiesz k
ni ami</w>
d ż
po pu
p się</w>
sły sz
1 7</w>
ta m
1 6</w>
re prezen
mo je</w>
g ry
kow a</w>
głów nie</w>
o pi
wer syte
kow ej</w>
w ska
ko sz
w ni
d ów</w>
u de
b r
sko ń
on ów</w>
kt or
ma n</w>
re gi
po nad</w>
wó dz
t wier
fi r
ba wi
wiad om
ma t</w>
paździer nika</w>
zost ały</w>
ni kt</w>
gos podar
w u</w>
1 9</w>
g łu
fi na
K rzy
za ję
pe j
mó wi</w>
li ć</w>
Fran cji</w>
się cy</w>
d ą</w>
sk ła
lepie j</w>
ut wo
z oba
S i
w ane</w>
wa na</w>
w ali</w>
kró l
w any</w>
w reszcie</w>
cią gu</w>
kow i</w>
dzi ła</w>
po łow
a na</w>
124 ;</w>
&# 124;</w>
świ at</w>
w cześ
ot war
sta ro
woj sk
cie ż</w>
ta j</w>
nos i</w>
drugie j</w>
ł ości</w>
d re
sze ch
pow in
po now
d ra
ń skie</w>
by ś</w>
P ro
sierp nia</w>
ko m</w>
1 3</w>
ojcie c</w>
z daw
wy korzy
lip ca</w>
ur a</w>
S o
za j
d ał</w>
poko ju</w>
pow sta
sa ma</w>
K ości
czerw ca</w>
k nię
o sią
ąc ej</w>
m .</w>
ro s
pi ł
b rzy
stycz nia</w>
ko niec</w>
to n</w>
roz wi
za raz</w>
k ó
zna le
ko mu
pierwsz e</w>
kow ych</w>
te k
st wie</w>
X I
mie r
mar ca</w>
o pie
in ter
at y
ad a</w>
ta jem
mow y</w>
g ów</w>
ch or
H en
W o
m e</w>
wo li</w>
czy na</w>
a ni
ta ł</w>
st e</w>
gra ł</w>
lo zo
głow ę</w>
kt ów</w>
pa pie
wod y</w>
mówi ć</w>
os en
k ą
s al
od kry
200 5</w>
i s</w>
B ry
d at
praw o</w>
u dział</w>
zacz ął</w>
gat un
sz pa
liw ość</w>
skie m</w>
ź ród
sy m
re dni
kwiet nia</w>
powod u</w>
twar z</w>
lu bi
ro syj
K ró
organi z
ał e</w>
prze sz
b i</w>
ze s
przeci w</w>
drz wi</w>
powie rzch
U S
sła wa</w>
j ów</w>
wie cz
po ru
wi ar
war un
po zo
pocz ął</w>
na ty
kt u
pre zyden
ko ło</w>
ki mi</w>
naj lep
now e</w>
nie szczę
no c</w>
cz ka</w>
prze strze
in g</w>
se k
m pi
s ę
obo k</w>
s ce
si ły</w>
wy daw
cza ch</w>
hist ory
s ja</w>
f er
w ają</w>
ka te
ni ka
gru dnia</w>
kości ół</w>
2 5</w>
a ta
cie ka
resz tą</w>
listo pada</w>
5 0</w>
os ie
nie si
cho ci
K i
tłu ma
K ar
ma ć</w>
z wo
sam ego</w>
ko ść</w>
le nia</w>
kra i
u sza</w>
e l</w>
g ę
W oj
ty m
m ą</w>
wspó l
re k</w>
g wia
ż ar
ri i</w>
arty ku
ąd ź</w>
osob y</w>
w st
s prze
przed mi
za jm
na wi
fi lozo
in nymi</w>
J ó
z u</w>
je ste
d ź</w>
gie m</w>
pra g
olog i
F e
wa m</w>
s un
rozpo czę
pierwsz ym</w>
o state
wzi ę
c ar
świat owej</w>
cz aj
f ra
z an
prze kona
róż nych</w>
w ło
ni ce</w>
19 0
ch o</w>
ja z
u m
oj ca</w>
cz ności</w>
200 9</w>
lat a</w>
ż u</w>
powie dzieć</w>
g e</w>
tro chę</w>
ając ego</w>
dro gi</w>
b ą</w>
jed no</w>
z bro
kobie ty</w>
s ow
sko na
c ale</w>
si n
ist ot
pow ró
oko li
cał e</w>
zost ało</w>
nie u
wy bra
R i
L o
we j
woje wódz
C e
d nie</w>
chwi lę</w>
rze ć</w>
miejs ca</w>
ch rze
mi ały</w>
b an
st ało</w>
s ch
wspo m
dzie się
b ły
zwyk le</w>
okre sie</w>
nie co</w>
z jawi
k nął</w>
od ci
zby t</w>
c ko</w>
naj wyż
ś nie
w skiego</w>
mi n
rę kę</w>
m ną</w>
mog ła</w>
cze k</w>
ob u
ci ą</w>
stąpi ł</w>
będ ą</w>
Warsza wie</w>
lu tego</w>
dow o
ja ch</w>
gło s</w>
t wie</w>
ni ał</w>
in forma
ce nia</w>
ja ką</w>
pow szech
ał am</w>
prze cież</w>
kow y</w>
no sz
0 00</w>
prowa dził</w>
mi ało</w>
rodzi ny</w>
z rozu
tere nie</w>
po słu
k cie</w>
f o
v e
R y
M on
wy bu
ście j</w>
z nów</w>
prac ow
u rzą
e g
wiel ki</w>
przy ję
m niejsz
t ne</w>
zes pół</w>
si ost
D i
o par
ając ą</w>
b ądź</w>
popu lar
s pad
stro nę</w>
naz wa</w>
względ u</w>
do skona
B óg</w>
al ne</w>
sze nia</w>
stro nie</w>
G a
jąc y</w>
zw ró
do m</w>
at y</w>
an d</w>
ob ie</w>
pa ństwa</w>
pis ał</w>
para fi
ja ko
ra cji</w>
trze ch</w>
w ało</w>
s on</w>
P ra
dział a
ie n
za sad
sy tu
cie r
koń cu</w>
g li
k e
ch ar
ko nie
bu dy
osią g
naz wi
książ ę</w>
pu ł
ar e
po ło
C o
o zna
raz ie</w>
k lę
de k</w>
k rze
W ło
okre śl
ń ce</w>
Par y
cz te
ł e</w>
przed e</w>
t ny</w>
zespo łu</w>
ła wi
szy ł</w>
t ki</w>
kt y</w>
pierwsz ej</w>
H o
pr ow
ra mi
męż czyz
rod u</w>
tra dy
pro st
kty w
now y</w>
wy zna
ź nie</w>
nie sie
w cale</w>
b ru
ne mu</w>
ż ony</w>
zw al
dow ie
z resztą</w>
men ta
na dzie
an giel
wiel kie</w>
C ze
du szy</w>
p sy
fi zy
głę bo
mie li</w>
dod at
ów no</w>
D y
men tu</w>
mo że
za pa
Ja na</w>
ży w
przy got
cał ej</w>
P an
b la
M ist
G u
or u
r ów</w>
sie dzi
prze r
pi osen
ści ja
mię dzy
mog ę</w>
p i</w>
sze nie</w>
te m
natu ral
20 10</w>
dział u</w>
ar chi
k le
wie nia</w>
po przez</w>
miesz ka
u nek</w>
mie j
prze wod
wa s</w>
stan u</w>
k l
sto li
ko lo
Jó ze
ok ro
cz ony</w>
wa mi</w>
mi any</w>
e mu</w>
2 4</w>
cie bie</w>
G re
wy niku</w>
zar ówno</w>
nie do
w dzię
dział al
od legł
znaj dow
2 1</w>
C y
kie row
mini stra
prę d
posiad a</w>
księ ż
di a
mo ja</w>
zw ła
dy j
dzi wi
r u</w>
powa ż
sła w
po to
Ja n</w>
nie ma
e mi
w g</w>
pod staw
ser ce</w>
śmier ć</w>
fi ka
w ą
i na
e t</w>
w rac
świe t
ce l
2 2</w>
twa rzy</w>
z dol
gł owy</w>
si a</w>
ni by</w>
będ ę</w>
ając ej</w>
S an
rzek ła</w>
każd ym</w>
histor ii</w>
h y
t he</w>
choci aż</w>
p ta
me k</w>
czę ściej</w>
al a
od by
n or
al u</w>
tu taj</w>
J an
sz ło</w>
posta ci</w>
le nie</w>
t ka</w>
P od
ro c
mu n
przeciw ko</w>
kró lew
M ie
pro b
obowią z
R zy
w łos
pod sta
ując a</w>
spra wied
s ę</w>
H ar
pro fe
po mi
u kry
mie nie</w>
we k</w>
s wych</w>
zwy cza
woje n
mło dzie
po rząd
ser ca</w>
ona l
US A</w>
G o
Sta ni
ch ów</w>
bę dzie
ści u</w>
o pera
dale ko</w>
praw dę</w>
wo lu
ze k</w>
Ka ro
m ś</w>
ma sz</w>
two rz
men cie</w>
s chod
bra ł</w>
kar z</w>
cz onych</w>
pra kty
zwła szcza</w>
wcześ niej</w>
sy n</w>
gro ma
mia n</w>
czę ści
Pi ot
R ad
og rom
m ało</w>
ła ch</w>
uzy sk
pow ro
przyja ci
a a</w>
Ś wię
gó ry</w>
kon y
bad a
A lek
d oświad
za da
k sy
v er
g rzy
p ry
b rz
nic twa</w>
mieszkań ców</w>
z ę
pra w</w>
d le</w>
mie ście</w>
18 9
gmi nę</w>
re go</w>
ży ła</w>
od par
do kona
ty pu</w>
ow ano</w>
v e</w>
li t
charak tery
n y
wy bor
ci ała</w>
or ów</w>
rzeczywi st
k ół</w>
do ku
przy zna
bezpie cze
z m</w>
al ny</w>
sw ą</w>
ra czej</w>
ł ę
w ski</w>
je ż
ży ciu</w>
uli cy</w>
gra nicz
p ło
e ner
on em</w>
ucze st
kie dy
wz ro
skła d</w>
sytu a
c ała</w>
z re
or y</w>
kto ś</w>
zie l
ang .</w>
szyb ko</w>
rodz aju</w>
Uni wersyte
rów na
ta kim</w>
świ ą
nic ę</w>
z do
woj ska</w>
Jo h
pró b
ty mi</w>
B ra
chodz ą</w>
n oś
sze re
on ymi</w>
Ś wiat
pomo cą</w>
cie li</w>
na le
praw dzi
sk oro</w>
bo ha
al nych</w>
ając ym</w>
dro dze</w>
ogó l
zie m
u ni
ł ą</w>
star y</w>
wie nie</w>
wie ś</w>
k e</w>
ch le
now ych</w>
C ar
sze p
o czy
a na
chrze ścija
cał kowi
o z
pier w
kt ora</w>
ow ski</w>
kon cer
m er
s ur
f ry
W ład
swo jego</w>
jąc ych</w>
p en
d wa
od powiad
ad ministra
le s</w>
o ch
niejsz y</w>
pa ni
w cią
musi ał</w>
n ki</w>
naty ch
cho dził</w>
dzie li</w>
wie rz
reli gi
g wał
sam ej</w>
dy wi
ta ć</w>
wy gląd
ż em</w>
ź ć</w>
dru ży
mow a</w>
spot ka
u st
u r</w>
an ty
zd row
p ała
cyj nych</w>
dowó d
u kład
po zi
ofi ar
ser w
sta ra
d ie
2 3</w>
po łą
mi ał
roz e
ar z</w>
cyj ne</w>
ce nie</w>
ty si
je zi
l ąd
dź wię
k wa
wiel ką</w>
ty sięcy</w>
X X</w>
or u</w>
za pom
ro l
pod róż
T u
ut rzy
gł oś
é m</w>
sł ów</w>
ut wor
XI X</w>
krót ce</w>
ro śli
po ży
ą wszy</w>
m ego</w>
H u
tytu ł</w>
za chow
kó j</w>
ce p
po stanowi
mat ka</w>
u pad
s re
T ur
po przed
pan u</w>
ta cji</w>
in nego</w>
z de
P ie
par t
sta n</w>
sze k</w>
be l
men ty</w>
st ą</w>
jakie ś</w>
Am ery
s we</w>
rz ad
na l
li wie</w>
i mię</w>
ż ół
u my
większ ość</w>
ste r</w>
ka zy
P rzy
bry tyj
z mu</w>
tym czasem</w>
księ cia</w>
wal ki</w>
dro b
ow o
względ em</w>
s ma
pod ej
lite ra
ad e
rzy ła</w>
mi n</w>
ro ż
mie rz
2 8</w>
po sa
G i
re j
stu di
kla sz
organi za
M at
kry ty
wcią ż</w>
ma szy
pospoli tej</w>
ń czy
pie ni
m ur
ty god
we st
te or
jąc e</w>
zna cznie</w>
nad to</w>
w krótce</w>
ł ość</w>
Z jedno
z b
F a
mił ość</w>
za kład
2 6</w>
kieru nku</w>
pó j
l od
la ch</w>
zd aje</w>
L ud
E l
tur a</w>
kie wi
h and
wi a</w>
mo cy</w>
owa niem</w>
li nii</w>
we wnętrz
tar z</w>
ka li
je my</w>
Bog a</w>
mił ości</w>
po da
koń ca</w>
ski mi</w>
myśl ał</w>
ow anych</w>
mie niu</w>
200 0</w>
sy na</w>
t wem</w>
ju tr
2 7</w>
kon stru
ż u
d aje</w>
przy by
woł ał</w>
cie l</w>
m ą
Po la
cja ch</w>
Hen ry
pi a
ż ona</w>
ą tek</w>
d em</w>
mu sz
co m</w>
d wor
t h</w>
S tar
szla che
ot wo
ła mi</w>
ga ć</w>
st aje</w>
ow ali</w>
200 2</w>
ina czej</w>
pol skich</w>
g ry</w>
istnie je</w>
au to
zł ot
n ot
cz ność</w>
cie l
a k</w>
ka de
mie si
pozy cji</w>
związ ku</w>
do kład
zd ra
g h
C ha
sz ka</w>
st w</w>
f an
zna ny</w>
Euro py</w>
C i
wy wo
prow in
wi zy
tr ów</w>
z bior
Bi ał
wy star
śl ad
te at
jedno cześnie</w>
kości oła</w>
c óż</w>
op ró
wię zie
cyj ny</w>
je chał</w>
Ka zi
mał że
g ał
w ając</w>
ł ych</w>
spo strze
czte ry</w>
rzą d</w>
za łoż
P re
cz em</w>
głos em</w>
B y
ko go</w>
ję t
natych miast</w>
le r</w>
otrzym ał</w>
ta li
tru m</w>
h rabi
g dzie
gwia z
roz pa
po kry
roz ma
now ego</w>
przy kład</w>
r ą</w>
łą cznie</w>
s powod
chy ba</w>
prze my
n ka</w>
dz ony</w>
H er
z ja</w>
kon ty
opró cz</w>
zg in
Mar y
men tów</w>
ta ką</w>
3 ;</w>
&#9 3;</w>
licz ne</w>
st ri
produ k
bie d
Ch i
K or
sz li</w>
bez poś
V i
cał ym</w>
t h
o pis
do j
ka pita
ki pe
ch ód</w>
kow ego</w>
200 3</w>
ą łem</w>
ob i
sku tek</w>
wyj ąt
ż ąd
cz one</w>
in nym</w>
Ś lą
prawdo podobnie</w>
pierwsz a</w>
6 0</w>
wy obra
do stęp
log i
suk ce
ń ską</w>
ol brzy
ta kiego</w>
pi ł</w>
u koń
niema l</w>
c ąc</w>
twa rz
in te
we so
nie n</w>
pol skiej</w>
o kaza
ró j
albu m</w>
c ką</w>
kla sy
poz wo
o kaz
dzi sie
z budow
rze ń</w>
k ło
S ie
l o</w>
ta ka</w>
ob u</w>
wi d
spo ty
s h
ru cho
pol skiego</w>
róż ne</w>
su b
szy ć</w>
posta ć</w>
pre mie
po mimo</w>
stą d</w>
cz ych</w>
po jedy
la mi</w>
ru sz
filozo fi
nę ły</w>
bra k</w>
18 8
niejsz ym</w>
wi dać</w>
za miast</w>
K się
rzu cił</w>
t ó
P ół
at a</w>
kobie t</w>
G ra
o puści
N o
gł ową</w>
dro gę</w>
cho ć
cz ał</w>
par ę</w>
ob sza
z ja
nau czy
praw da</w>
n ości
s ąd
dzie ci
tow ał</w>
kobie ta</w>
przypad ku</w>
4 0</w>
gru n
ko ła</w>
cza sów</w>
i ne</w>
l ok
pot ę
n r</w>
cy k
ź ni</w>
spe cjal
me ta
D zie
je n
2 9</w>
u ra
prowa dzić</w>
woj nie</w>
szczę śli
z go
p l
mi ałem</w>
da m</w>
o dz
at o
d i</w>
193 9</w>
k al
P or
nie po
ko ł
świą ty
od wie
1 ;</w>
&#9 1;</w>
wi dział</w>
zie mię</w>
występ uje</w>
wy ja
la cji</w>
ń ców</w>
wró cił</w>
li nie</w>
od y</w>
o ce
ul .</w>
cho ro
rzą dz
s wym</w>
przy jem
pierwsz ego</w>
wó r</w>
w prowadz
słow o</w>
z na</w>
N or
przy kład
żołnie rzy</w>
t rze</w>
prz ód</w>
pow ta
naj częściej</w>
194 5</w>
e uro
on o
dzisie jsz
W al
sz er
3 1</w>
se n</w>
ciąg le</w>
za p
cze l
k ta
ro lę</w>
rów no
na gro
a r</w>
w n
kow ym</w>
l os
k ł</w>
po cho
R ob
n. e
ni o</w>
b ło
te s</w>
wiel kim</w>
ar y
C zar
ko no
zawie ra
ja kim</w>
ę ła</w>
ż ał
rze ki</w>
in ny</w>
pomo cy</w>
intere s
M or
l ą</w>
200 1</w>
ując ego</w>
w ego</w>
w ad
dzi li</w>
te ra</w>
st ry
in g
olog ii</w>
nicz ego</w>
nazw ę</w>
s and
st wem</w>
z bli
o chro
sz ta
g ryw
to m</w>
v on</w>
wy ciąg
ży dow
znajd ują</w>
u rzęd
ch ce
ol o
ni ż
pi ć</w>
d ła</w>
F or
li ście</w>
s s</w>
C en
po n
n.e .</w>
li st</w>
sz cza
ow skiego</w>
dzie cko</w>
się g
Na rodow
k si
cj on
P er
re j</w>
drug im</w>
dzi a</w>
uży t
za uwa
strze l
ła by</w>
kra j
k ała</w>
re g
a wan
j nych</w>
Ko mi
rze ź
począt kowo</w>
z i</w>
cz ą
Nie mie
łe ś</w>
z łoż
ko ście
kon tro
rze c</w>
mo jej</w>
me trów</w>
sk ę</w>
te ra
pro szę</w>
s j
E d
pierw ot
f ał
b al
da ch</w>
zost aje</w>
I V</w>
zo stawi
o cze
zam knię
co f
pot ęż
za war
ser ii</w>
An drze
ż ą
ro n</w>
prze by
ostate cznie</w>
e ś</w>
bog a
z nie
wy s
pie nia</w>
plan e
ob ja
K at
ok rą
pro te
r ie
u tra
C zer
rząd u</w>
ch ała</w>
za stos
nic two</w>
ma my</w>
za kre
ni ła</w>
ga ch</w>
ę dzie</w>
ru chu</w>
ł ego</w>
t t
z bi
Fran ci
M an
d an
ty w
I i</w>
tor a</w>
18 6
ws pani
p ę</w>
rob ot
ok ra
ni czy</w>
po ch
nicz ym</w>
słu sz
li ła</w>
1 00</w>
li na</w>
wzi ął</w>
o czach</w>
zwycza j</w>
ą g
sp ę
duż o</w>
za ba
pad ł</w>
sz cz</w>
wie dział</w>
ż on
z ów</w>
mo gł
sym bo
sz an
sz ał
pierwsz ych</w>
ok u
nie których</w>
e fe
st ały</w>
b ła
A le
B ie
L on
kow ał</w>
ży wi
gru pa</w>
wska z
J uli
Po zna
Wład y
mówi ąc</w>
Ch ar
dzie sią
oby wa
po chodzi</w>
Kazi mie
sw ob
f y</w>
nios ła</w>
gl ą
w ano</w>
p róż
ś red
sk ach</w>
ma na</w>
18 7
ofi cjal
ci ało</w>
st wier
szko ły</w>
wy stępow
znalaz ł</w>
pie ra
mow ał</w>
ar cy
sztu ki</w>
sty czne</w>
sk ut
zi m
pi l
aj a</w>
i ć</w>
ą ś</w>
mie ń</w>
cze ń</w>
mo im</w>
je ź
k rą
obe j
N aj
cie le</w>
g ra</w>
dłu ż
cza s
mie niem</w>
S er
A le</w>
je no</w>
ko s
miejscow ości</w>
za trzym
że k</w>
dob ro
W ę
su nię
po czę
s ła</w>
na sze</w>
o czywi
wn ąt
Au gu
ze m
w za
Mist rzost
wa le
t ować</w>
20 11</w>
wyso kości</w>
mi ą</w>
szczegó lnie</w>
ch u
mówi ła</w>
b e</w>
cie rp
pew nego</w>
nę ło</w>
me r</w>
par ta
i ł</w>
Ch ry
mat ki</w>
H an
ży t
elekt ro
i o</w>
ek sp
mist rzost
powierzch ni</w>
ch cę</w>
d ą
Kości oła</w>
podob ne</w>
ce sa
dy re
z ła
I z
sz u</w>
wie n</w>
spraw y</w>
za tem</w>
wiel kiego</w>
tow any</w>
zaczę ła</w>
roz począł</w>
miejscow ość</w>
k ru
od d
ostat ni</w>
ch e</w>
ś redni
8 0</w>
smu t
me cha
now ej</w>
sy stem</w>
j skich</w>
uwa gę</w>
n ó
gmi na</w>
t ri
in ni</w>
na szych</w>
in stru
bra ć</w>
ał ych</w>
p t
a ktyw
t ch
kow ski</w>
d z</w>
chy l
e dy
bo ż
czy ły</w>
języ k</w>
ce sar
myś le
ka ta
ni ony</w>
by łem</w>
r owi
b re
dze niu</w>
i na</w>
ów ki</w>
cie la</w>
ne r</w>
im .</w>
cen tra
ł ym</w>
dział ania</w>
kow any</w>
doty ch
se z
o czu</w>
te maty
re ali
a g
przy najmniej</w>
gi p
choć by</w>
g rz
f al
dzi ały</w>
prac ował</w>
cz kę</w>
prob le
kro tnie</w>
obe jm
cie j</w>
po dzie
li wy</w>
pro si
lo t</w>
ob raz</w>
samo lot
aut or
se kre
ma ga
ując ym</w>
te mat</w>
spra wi
o dzy
cz ąc</w>
tery tor
praw dzie</w>
kow ą</w>
stan owi</w>
lo ka
ko ro
b ów</w>
czy ło</w>
kom pu
na dz
współ czes
og ło
wła dzy</w>
nog i</w>
199 9</w>
o ta
po kona
og ni
jeste ś</w>
dot ąd</w>
u i</w>
wa niu</w>
Lud wi
kła dzie</w>
k wiat
pó ki</w>
s ły</w>
ar mii</w>
każd ego</w>
pol u</w>
znaj om
po bliż
Pa w
js k</w>
pisa ć</w>
euro pej
cz tere
a d</w>
y a</w>
ko la
wy ch
z decy
dla czego</w>
t uje</w>
cał ego</w>
społe cze
podsta wie</w>
sk ry
przy wi
pobliż u</w>
B el
cyj nego</w>
nic ą</w>
a s
nie bie
nicz e</w>
e li
O d
prowa dzi</w>
zb rod
h on
mi nu
G ór
na pis
młod y</w>
łat wo</w>
zdoby ł</w>
jedna kże</w>
now o
sł od
a w
u bra
ponow nie</w>
k uje</w>
pier si</w>
nie które</w>
ci li</w>
ne t</w>
ie m</w>
w sty
za s
pierwsz ą</w>
zgod nie</w>
s bur
j ne</w>
sze d
dziew czy
za wi
wiel kiej</w>
z nik
w ej</w>
mog ło</w>
niejsz a</w>
mo kra
ko cha
kate gor
199 8</w>
wnąt rz</w>
S tan
ko mó
odpar ł</w>
za sa
f ie</w>
s ję</w>
zwie rzę
przed się
dob re</w>
by śmy</w>
cz war
trud no</w>
r ę</w>
wi os
u sta</w>
Zjedno czonych</w>
na gra
ist o
pieni ą
cho dzić</w>
tow ych</w>
Z e
między narodow
praw y</w>
mo ral
ne n
for my</w>
ti on</w>
mo rze</w>
da mi</w>
fa kt</w>
za pyta
ru n
świad om
że niu</w>
pię ć</w>
roz wiąza
za gad
rę ką</w>
W ol
o i</w>
zapew ne</w>
ka z</w>
sz em</w>
E u
łó ż
i dzie</w>
si aj</w>
p ryw
Pol skiego</w>
mą ż</w>
al nie</w>
rob i</w>
za mie
ga mi</w>
Wiel kiej</w>
zna czy</w>
re ży
pot wier
gwał tow
z wa
now a</w>
wart ości</w>
cz ę</w>
drugie go</w>
prac ę</w>
Ros ji</w>
licz ba</w>
pe wien</w>
kiedy ś</w>
m ąd
ńst wie</w>
E n
dro ga</w>
wiel ka</w>
po my
li a</w>
fil m</w>
pocz u
li we</w>
cyj nej</w>
pro stu</w>
ż ą</w>
ł owa
G ó
wyd aje</w>
sam e</w>
wy kony
ud ało</w>
leż y</w>
S ch
za czy
st re
cho dzie</w>
oczy ma</w>
ując ej</w>
U krai
ł szy</w>
at u</w>
G da
gene ra
roz woj
g er
od dział
gł owie</w>
C ie
p lo
S ło
szu ki
m b
tow e</w>
języ ka</w>
powie trz
dru gą</w>
are sz
zam ku</w>
odległ ości</w>
tow ej</w>
żad nego</w>
O l
gdy ś</w>
rodow i
z ę</w>
ok ru
ow ało</w>
kr wi</w>
powst ała</w>
każd ej</w>
odpowie dział</w>
k tem</w>
wer sji</w>
kole i</w>
dzi siaj</w>
wido k</w>
gra fi
ni ała</w>
jeż dż
d ło
pan na</w>
zw ał</w>
o ni
M ał
ąd z</w>
spo dzie
A a</w>
mog li</w>
rz ała</w>
ta kiej</w>
bo le
nie zależ
ot rzy
li sty</w>
st ka</w>
li n</w>
S R
pow stał</w>
pro st</w>
sty cznych</w>
daw no</w>
pa s
oko licz
po czy
w ów</w>
stro na</w>
cze niem</w>
sk ra
nie ść</w>
tem pera
reg ul
Zie mi</w>
ka jąc</w>
ując ą</w>
powie ści</w>
ła w
t ąd</w>
Ja k</w>
za kon
rów nie</w>
O o</w>
budow y</w>
dzie je</w>
zdaw ało</w>
bi bli
ś ni</w>
mo ją</w>
f ar
cz ona</w>
ogó le</w>
fa bry
n s
naj waż
Ja po
pryw at
pod legł
po zwal
u le
z my
kow ane</w>
któr ymi</w>
bi ł</w>
tu ż</w>
zo stać</w>
ru ch</w>
pol skim</w>
p. n.e.</w>
d ym</w>
u możli
w ęd
skie mu</w>
s si
jak ąś</w>
zale dwie</w>
wiel kich</w>
na st
b em</w>
S al
rodz aj</w>
był oby</w>
mó gł
żad nej</w>
za słu
czy pospolitej</w>
ci o
po ra
199 0</w>
T ar
zamieszk uje</w>
Świat a</w>
umie szcz
męż a</w>
cze mu</w>
B ro
t rza</w>
e po
7 0</w>
szy mi</w>
sł u</w>
Bry ta
bo j
nie raz</w>
znale źć</w>
produ kcji</w>
in o</w>
ni kami</w>
H ol
po tra
ży li</w>
sam ą</w>
ser i
n ne</w>
za nim</w>
mo ich</w>
z bliż
war sza
niejsz ą</w>
pie c</w>
tow y</w>
ka m
k ła</w>
st ra</w>
na szej</w>
na sz</w>
f u
dow i
państ w
z du
de bi
wiadom o</w>
ł by</w>
za pro
194 4</w>
wi dząc</w>
W in
za razem</w>
j ny</w>
p em</w>
g ości
s ol
l y</w>
ze wnętrz
o po
powsta nia</w>
ra di
nicz ych</w>
pew ne</w>
Al ber
sy w
Z y
Euro pie</w>
że gna
lud ności</w>
al nej</w>
ob raz
st ud
sk ał</w>
gie r
, 5</w>
now o</w>
T i
przy pom
elekt ry
Alek sand
p ów</w>
powiad a</w>
pol skie</w>
wo jsk</w>
rozu mie
au tor</w>
Sz ko
Hi szpa
prze prowadz
wią zek</w>
Sz we
se t</w>
che mi
no sił</w>
ni one</w>
połow ie</w>
po la</w>
t le
swob od
wy róż
o znacz
nie j
szczę ście</w>
o c
naj star
ra mach</w>
chci ała</w>
ow ymi</w>
nau ki</w>
wy brze
ow ały</w>
i d
b ol
odpowie dzi
sk ó
zna ne</w>
ś le</w>
li za
rze niem</w>
lu m
Ka na
ź le</w>
osob ist
C o</w>
sz ki</w>
pa nią</w>
nie wol
k s</w>
mi t
dy sku
drug ie</w>
roz mawi
wó d
pier w</w>
bit wie</w>
cen trum</w>
ka pe
ob serw
c twa</w>
al nego</w>
A kade
tran s
SR R</w>
re wolu
z miany</w>
18 4
rą k</w>
we dle</w>
P ow
ogra nicz
li ny</w>
f f
właści wie</w>
bro ni</w>
roz ko
gdy bym</w>
bisku p</w>
daw niej</w>
spe cja
pow y
m ały</w>
po trafi
u mar
woj na</w>
t ała</w>
ad i
W roc
po chodz
nię cia</w>
j ski</w>
ni n
za to
Kra kowie</w>
ch cąc</w>
księ ży
mist rz</w>
wol no</w>
now ą</w>
tu ry
przy jm
ro m</w>
zna czenie</w>
wy mieni
je sz</w>
syste mu</w>
od u</w>
j ś</w>
f la
me dy
il ość</w>
de ł</w>
K ry
g ni
wi dzę</w>
C on
P ru
st ych</w>
robi ć</w>
XV III</w>
dob ra</w>
Po łu
pie ń</w>
kil ku
daw na</w>
st ał
ob c
doty cz
ba ch</w>
dow ol
drze wa</w>
do mow
stanowi sko</w>
jąc ego</w>
pamię ci</w>
Wi kipe
m ając</w>
sam ot
regi onie</w>
kró le
sz al
bi ć</w>
pol ska</w>
zmar ł</w>
Re publi
9 0</w>
bł ę
archi te
e kono
i ść</w>
ś rodowi
pod wó
praw dy</w>
Pół noc
na szego</w>
godzi ny</w>
wie lo
ś lu
dze niem</w>
g al
nie gdyś</w>
za zwyczaj</w>
t i</w>
h el
prze znacz
ł ej</w>
i ą</w>
zdo ł
ro dy</w>
ko men
Niemie c</w>
prze bie
S t
z bo
ne i</w>
at i
utwo rz
d or
prowa dzi
ge r</w>
gi a</w>
ze um</w>
a ktor
funk cję</w>
B or
le j
zd ję
la n</w>
sła b
cztere ch</w>
ał u</w>
organi zacji</w>
w prost</w>
niejsz ego</w>
D zi
słu cha
owa ń</w>
nazw y</w>
ad a
Chry stu
cza sach</w>
muzy ki</w>
sk ąd</w>
dni ach</w>
ści ą</w>
par la
ta j
wy posa
ka pi
Q u
ak cji</w>
w prawdzie</w>
na tury</w>
in i</w>
sto i</w>
la m
by t</w>
za wołał</w>
ie go</w>
głę b
ra j</w>
dru ga</w>
B al
koch an
gór ę</w>
możli we</w>
odz na
siad ł</w>
mi u</w>
lo s</w>
199 7</w>
w czes
f li
okre śle
Ge ne
u ch
st ki</w>
bog at
bł ęd
cz nymi</w>
k ować</w>
u st</w>
Rze czypospolitej</w>
du ch
ja ka
że niem</w>
stosun ku</w>
k s
cza mi</w>
na prawdę</w>
przy to
f ot
zwy czaj
z j
sy n
o skar
ce lem</w>
mo rza</w>
An g
Fran cu
E e</w>
wy łącznie</w>
a żeby</w>
bra t</w>
wy sł
pienią dze</w>
Ł o
wie czo
t na</w>
ł ku</w>
licz by</w>
b łą
wra żenie</w>
ku p
amerykań ski</w>
u słu
F er
stycz nej</w>
ów czes
nie ń</w>
fil mu</w>
peł ni</w>
l d</w>
tra kcie</w>
a le
z ję</w>
przy pomi
Mi ni
powi nien</w>
an u</w>
całkowi cie</w>
wsze dł</w>
ob a</w>
Wi t
ń cu</w>
ty czne</w>
odpowie d
j éj</w>
nie kiedy</w>
o pan
samo chod
powie cie</w>
działal ność</w>
se l
które mu</w>
Za chod
Ł u
K ie
śmier tel
wi ce
zo stanie</w>
uwa gi</w>
pa ństwo</w>
wy gra
so r</w>
Rob er
nie nawi
wy mi</w>
c ony</w>
die ce
an ymi</w>
ocze ki
f ron
rozwoj u</w>
ma ni
każ da</w>
n. p.
książ ki</w>
hi szpa
żad en</w>
włas nej</w>
jakie goś</w>
po nadto</w>
f re
mia na</w>
położ ona</w>
la s</w>
zrobi ć</w>
st row
wy doby
sz ły</w>
daw ał</w>
ja ka</w>
Ka li
że ń</w>
e s</w>
dzie ła</w>
stycz ny</w>
na przód</w>
powo li</w>
mow ę</w>
s pół
D an
mał e</w>
ory gi
now ym</w>
za nie
tr ą
wod a</w>
P ier
wszyst kiego</w>
wi dzieć</w>
od da
na n
Warsza wy</w>
wo kół</w>
ła god
g ła
G ru
powie dzi
ra no</w>
słysz ał</w>
ry cer
cj ona
C om
moc no</w>
O li
pow oł
m m</w>
mog ły</w>
S tra
rozma i
sre br
po cie
n oty</w>
bu n
nę li</w>
Ste fa
prze cie</w>
sp y
okre s</w>
by t
o te
spra w</w>
m ej</w>
dro gą</w>
drz wi
re gu
rę ku</w>
ż er
z musz
Euro pej
za stęp
i r
du że</w>
kla sy</w>
ła c
pojedy n
proje kt
w czo
od bi
ne s</w>
ra d</w>
jąc a</w>
mu szę</w>
ob ję
języ ku</w>
za po
stwo rz
os e
B ur
ofi cer
ty s.</w>
na stu</w>
ozna cza</w>
ob szar
ta rzy
J or
st ali</w>
stan ął</w>
po stawi
dob ry</w>
wi dzi</w>
bl ad
K e
y j
ko nie</w>
stro n</w>
po prze
ni n</w>
zo nie</w>
prawdo podob
dr ż
pie nię
człon ków</w>
Z SRR</w>
stri a
ow y
do sy
charak ter</w>
prowin cji</w>
prze ję
t ob
a ż
og ar
sza c
t rój
s o</w>
o rem</w>
p lu
na mię
li sta</w>
in t</w>
po równa
myś li
stę p</w>
kow skiego</w>
dre wni
rze niu</w>
ra dzie
nie niem</w>
gro m
sek su
os ła
o puszcz
wart ość</w>
po ja
r ym</w>
nie wy
e w</w>
sł owa
ch oty</w>
wz dłu
pat ry
peł nił</w>
fra g
te row
S zy
st ę</w>
zachod niej</w>
wie sz</w>
sku te
wyd ał</w>
f i</w>
łow i
nicz ej</w>
re z
le ś
stąpi ć</w>
dze ń</w>
s h</w>
t le</w>
st rzy
ja po
st ó
do star
g roz
rod ę</w>
u kaza
klasz tor
w pad
gra nicy</w>
cyj na</w>
kaz uje</w>
co dzien
sło ńce</w>
M y
Ar mii</w>
dow ał</w>
z wol
cz oł
bra ta</w>
pozi o
por t</w>
si ła</w>
Pol ska</w>
bi twa</w>
głów nym</w>
e la</w>
uśmie ch
tra kt
brze gu</w>
s je</w>
ał by</w>
u stawi
e st</w>
lu dzi
zawie ra</w>
gał ę
sły sze
ni om</w>
pię t
G ar
fe ren
d s</w>
ście m</w>
zd rowi
W schod
ko mu</w>
może my</w>
t s</w>
i l</w>
je ch
jednost ki</w>
A t
go rz
będzie sz</w>
nie bezpiecze
ow anej</w>
i d</w>
poz bawi
m ni
dywi du
bi a</w>
świat ła</w>
czu ł</w>
199 4</w>
ba mi</w>
ra tu
wan ge
r ist
za gro
większ ości</w>
mar y
met od
był by</w>
tur nie
Je zu
dowó dz
służ by</w>
dziesią t</w>
na ł</w>
hand l
la u
199 1</w>
ro dek</w>
liw ą</w>
dług ości</w>
przyjaci ół</w>
potrze ba</w>
17 9
oczywi ście</w>
czy ta
wz gó
komu nika
wzdłu ż</w>
c or
pocho dzenia</w>
wy woł
sk ów</w>
z wi
n ny</w>
Lon dy
ów ka</w>
roz bi
p e</w>
bad ania</w>
licz nych</w>
ze bra
je mu</w>
al nym</w>
ksi ądz</w>
cyj nym</w>
spokoj nie</w>
199 6</w>
rę ki</w>
naj pierw</w>
poś więc
Pary żu</w>
za bra
kul tury</w>
sta cji</w>
do strze
os a
w u
pew nym</w>
ot ów</w>
Ang lii</w>
t ór
o f
ż oną</w>
powie m</w>
gdzie ś</w>
k ali</w>
Mo sk
se j
ni ów</w>
sz ty
pomo c</w>
F ry
zało ży
t z
t nych</w>
ro man
chodzi ło</w>
F re
w łó
wo dzie</w>
t wi
przestrze ni</w>
od wa
spraw ę</w>
p rze</w>
Połu dni
spra wie</w>
dzie j
okre su</w>
re s</w>
star a</w>
s nął</w>
obywa te
wy szedł</w>
A fry
sz k
u t</w>
L in
d ło</w>
tow a</w>
n nych</w>
wie dzieć</w>
ro li</w>
pa ch</w>
wschod niej</w>
spo d</w>
cie lem</w>
włas ne</w>
że laz
szcze nia</w>
199 5</w>
kon tra
ser cu</w>
powta rz
in dywidu
zi ć</w>
bli sko</w>
c two</w>
myśle ć</w>
m oty
ob ó
nie niu</w>
XV I</w>
powie działa</w>
m ode
for mie</w>
głów nego</w>
Niem cy</w>
fir my</w>
ka ra
re da
du cha</w>
kre w</w>
prezyden ta</w>
le ka
ie ń</w>
Pa we
199 2</w>
wysp y</w>
dosy ć</w>
tran spor
ot wie
na dal</w>
sty lu</w>
za czyna</w>
h an
R ady</w>
komó r
żad nych</w>
mo n</w>
z groma
fi ni
zw rac
pro mieni
ka cji</w>
am p
ry ce
mia r</w>
ch ą</w>
ma ga</w>
szu kać</w>
sz we
a z
199 3</w>
chce sz</w>
ostat nie</w>
li gen
ba ro
konty nu
pi s</w>
pół nocy</w>
kil ka
198 9</w>
je chać</w>
wyra ź
pi a</w>
s przed
ostat nich</w>
korzy st
cał kiem</w>
k ąd</w>
M ad
rze cz
za mi</w>
wy bo
mo s
wyd any</w>
uważ a</w>
rod ów</w>
n.p. m.</w>
pre ze
dziesię ciu</w>
cj onal
wpły w</w>
ś nię
po ci
dz one</w>
czę st
bie go</w>
staro żyt
świat ło</w>
u zbro
przewod nicz
Ro z
z organiz
il ości</w>
In di
szcz y</w>
Mi ę
cze le</w>
pe r</w>
p ru
ra dy</w>
ob słu
jaka ś</w>
debi ut
pra ce</w>
se zonie</w>
rz ę</w>
mar szał
O j
chło pa
D ar
pozo stawi
trzy dzie
cja mi</w>
kom pozy
P la
t nym</w>
G rze
włos y</w>
Se j
kan dy
V er
de li
gl ąd</w>
ob licz
kt ury</w>
o mi
dług ie</w>
wi działem</w>
histor ia</w>
słu ch
pu szcza
m ru
rę ko
gie r</w>
dow ych</w>
dod ał</w>
moż liwość</w>
ł ek</w>
ni na</w>
dzie si
sie dz
wsz ędzie</w>
człowie kiem</w>
2 ,
t obie</w>
Ge or
dot ar
ko nia</w>
N A
za ch</w>
mie ni</w>
kre w
ok ie</w>
wojewódz twie</w>
b od
do szło</w>
pan em</w>
Kró le
wszel kie</w>
t on
szy ła</w>
kr wa
cz o</w>
u si
tr wo
mówi ę</w>
fe de
redni o</w>
ni żej</w>
gę st
roz gryw
S ze
pró cz</w>
wi na</w>
będ ąc</w>
związ ane</w>
za ma
t ną</w>
o ł</w>
u nik
dz ał</w>
A da
na ście</w>
stud en
nicz nych</w>
o pat
jutr o</w>
E gip
ci cho</w>
mo c</w>
pa nii</w>
t k
s pie
me di
rzy li</w>
k s.</w>
18 5
le t</w>
po st
wła dzę</w>
Józe f</w>
20 0</w>
ma mi</w>
cze ch</w>
prze ło
og ro
po szczegól
An to
połu dnie</w>
S tu
u f
czy ni</w>
mie sza
przyjacie la</w>
stąpi ła</w>
nic ja
le ra</w>
dow od
v er</w>
zna ł</w>
kar dyna
nie za
gro ź
ja w
isto cie</w>
e pi
pro ś
ka wał
s cy
podob na</w>
Warsza wa</w>
gie l</w>
cza ć</w>
dłu gi</w>
le dwie</w>
ka den
ter mi
wię k
czy ni
leg en
w w
wła dze</w>
uro dził</w>
M al
k in
gmi ny</w>
ku ra
F o
maj ąt
is ę</w>
part ii</w>
po kój</w>
Sz cze
in nej</w>
je t</w>
chodz ąc</w>
wyra źnie</w>
de n</w>
an ów</w>
ow anego</w>
Bo le
wó d</w>
sytua cji</w>
d ry</w>
m ała</w>
P an</w>
kon fli
c ej</w>
3 5</w>
dow ej</w>
gen .</w>
od rę
pa li
cz ni</w>
tę sk
ge l</w>
ow anym</w>
ał bym</w>
szla ch
ni kogo</w>
naj bliż
mist rza</w>
Mar ia</w>
prze ra
ka że</w>
XV II</w>
czy k</w>
chwi la</w>
tor ów</w>
głę bi</w>
dz ki</w>
c on
Bryta nii</w>
sz to
dz ej</w>
ar y</w>
ty pow
kar ie
na czel
tur ę</w>
włas ną</w>
po le</w>
skład a</w>
Niem czech</w>
wykorzy sty
de parta
ow ców</w>
części ą</w>
cz ów</w>
bó j
nazwi sko</w>
R P</w>
stó p</w>
ży je</w>
P at
sie dział</w>
v a</w>
n ków</w>
sprze da
Z a</w>
za interes
s sa
W w</w>
nie zna
st rz
ży nie
pienię dzy</w>
Zy g
po leg
s ali</w>
sam ych</w>
roz pozna
źród ła</w>
in ten
mogł em</w>
kon ta
du chow
t nej</w>
chodzi ła</w>
Ł a
rzą t</w>
In ter
a a
sę i</w>
ci ły</w>
po myśl
w aj
in stytu
Mi a
ty cznych</w>
zna k</w>
uro czyst
sło ńca</w>
le ci
u leg
dziesi ąt
nadz wy
progra m</w>
kie mu</w>
h ol
dzi ale</w>
ś la
it p</w>
dwu dzie
wy kład
wsze ch
T ra
rzeczywist ości</w>
ku n
tu rze</w>
cią gł
roz sze
ge ni
Ja ku
w on
od czu
k west
dzi ad
kon cep
ła ci
ści ć</w>
wy bit
s or
bie rze</w>
star ego</w>
wi zji</w>
ku ch
kie r
o pa
sta tek</w>
owie c</w>
wy raz</w>
Pol skiej</w>
ciąg nął</w>
no log
K an
Bo że</w>
Stani sław</w>
Au stra
wybu ch
szczę ścia</w>
pow tó
nosi ć</w>
fi k
Fi li
wy stawi
komu ni
wy ro
d ane</w>
spo n
godzi n</w>
ź li</w>
za trzy
p ch
patrz ąc</w>
n ur
se k</w>
o ka</w>
skie row
dwo ma</w>
sie ci</w>
ws chód</w>
słow em</w>
pra wo
po łącz
zost ali</w>
ja kiego</w>
moż liwości</w>
niez mier
na za
wz ru
pew no</w>
po szedł</w>
czy ż</w>
tu r</w>
zw ala</w>
s ona</w>
mówi ą</w>
nosi ła</w>
f ur
ka t</w>
Pawe ł</w>
wieczo rem</w>
ka sz
ma tematy
ot óż</w>
Józe fa</w>
stan dar
l y
C or
T at
w skiej</w>
nazw ą</w>
ta ń
me s</w>
b rą
Z wiąz
w ście
ró ż</w>
pat rzył</w>
fi g
w ości</w>
dy plo
du szę</w>
twór cz
jako by</w>
cór ka</w>
bie gł</w>
Mar i
stop niu</w>
now i
nie podległ
Uniwersyte tu</w>
większ ą</w>
trze ci</w>
rzy ło</w>
mu szą</w>
wo ła
informa cji</w>
de l</w>
prze szedł</w>
proce s</w>
S za
oś rod
k lub</w>
podróż y</w>
ka ją</w>
ge n</w>
lan dii</w>
poko j
tow i</w>
lan d</w>
il le</w>
ty cznej</w>
al na</w>
ąc ymi</w>
wie dzy</w>
mag ne
i mi
poś wię
inte ligen
1 .
bie ra</w>
budow ę</w>
peł ne</w>
mie sięcy</w>
o ra
fan ta
s peł
ok na</w>
ma nia</w>
gatun ków</w>
dzie wię
s se
zajm uje</w>
nicz ne</w>
pi sy
ży ły</w>
a s</w>
je sie
l ko</w>
niemie cki</w>
s ło</w>
po j
zwie rząt</w>
roz mowy</w>
pew nie</w>
18 0
za zd
jaki mś</w>
j skiego</w>
d ri
rzy ły</w>
du sza</w>
obro ny</w>
świę t
w prowa
po g
c ku</w>
za my
p ał</w>
T o</w>
st ii</w>
de l
z ga
sp rzę
jakie jś</w>
uni wersyte
pie nie</w>
Paw ła</w>
C z
dziesię ć</w>
cór ki</w>
a stro
ur ę</w>
Ma g
Po li
istnie ją</w>
l ne</w>
l on
kto rem</w>
Czer w
w rę
te rze</w>
rzad ko</w>
M il
M er
T h
at mos
kra j</w>
ł ę</w>
ok ry
st al
po szuki
za gra
3 2</w>
n owa
stan owie
na rzę
ni ały</w>
og ień</w>
Kon stan
za ko
przy szedł</w>
pod ję
l nych</w>
ci ch
wypad ku</w>
ż ę</w>
mia ste
cze goś</w>
B ru
pod e
ka pli
d r</w>
do m
ga n</w>
le y</w>
ko re
sk on
uczu cia</w>
O s
za granicz
wa w</w>
cie n
za jął</w>
mężczyz n</w>
cz ter
p ą</w>
ws par
de s</w>
T owarzy
po cią
e m
ost roż
ra na</w>
ta n</w>
seri alu</w>
po kole
parafi i</w>
sił ą</w>
ś ć
1 ,
Ma z
z wiązek</w>
s ro
produ cen
ce r</w>
prze kształ
progra mu</w>
zach ód</w>
ucz ci
sek wen
ot u</w>
za mek</w>
hrabi a</w>
ow aną</w>
sz pita
bisku pa</w>
od działy</w>
cze ść</w>
g wa
ł zy</w>
sta ch</w>
owi cie</w>
s on
re zer
nie którzy</w>
ka nie</w>
jako ś</w>
istot nie</w>
po stępow
m l
L w
zm em</w>
proje ktu</w>
śred niej</w>
wyjąt kiem</w>
prze waż
poję cia</w>
j skiej</w>
Hiszpa nii</w>
w ałem</w>
for mal
ga ze
pan cer
Bi bli
P ri
wido cznie</w>
kształ t</w>
d b
ń cu
wiar y</w>
ko ry
praw dziw
ste ty</w>
19 18</w>
z biera
c one</w>
roz wój</w>
H al
wy mag
Ży dów</w>
odpowie dzi</w>
mił os
un ku</w>
t nego</w>
K ur
średni owie
cesa rza</w>
sy gna
wiel kości</w>
ńst wem</w>
zna ć</w>
w skim</w>
państ w</w>
i nicja
wpły wem</w>
pomo c
liw ego</w>
u d</w>
F il
now i</w>
o y
i g
przedsię bior
pocz ci
u kład</w>
g ory
wąt p
ut wór</w>
stop nia</w>
działal ności</w>
p łat
mo nar
a ktu
terytor ium</w>
s pełni
ob raż
jaz d</w>
dzie cka</w>
drze w</w>
pew nością</w>
występ ują</w>
bit wy</w>
inter ne
puł kow
nie skoń
og ląd
Mar ii</w>
premie ra</w>
ch łod
le c</w>
ma nie</w>
l or
ści ąg
pod niósł</w>
D ob
0 .</w>
powie trze</w>
d ę
wysp ie</w>
B ri
użyt kow
sil nie</w>
oli mpi
przyjaci ół
stro n
G ro
gmi nie</w>
chę tnie</w>
umożli wi
wczo raj</w>
Andrze j</w>
pa pier
H el
kra jach</w>
teor ii</w>
bezpoś rednio</w>
za pła
ja kiej</w>
Rze cz
wiecz ór</w>
wy raż
okoli cy</w>
sk om
za w
in for
c menta
194 1</w>
fika cji</w>
le j</w>
wer sja</w>
sta wał</w>
wy sy
naj lepiej</w>
li kwi
ma s</w>
lu dź
pię ciu</w>
ow skiej</w>
dziew czyna</w>
In stytu
Stani sława</w>
Mi cha
se na
krzy w
spo czy
po kaza
l nej</w>
Iz ra
ste k</w>
psy ch
zd u</w>
sta nia</w>
prę dzej</w>
ot ę</w>
ę ło</w>
sk le
K om
cier pi
wni o
wi o
nie win
stu dia</w>
niejsz ej</w>
in ę</w>
Zyg mun
powró cił</w>
g oś
ser de
cie p
ota cz
poru sz
świ a
og i
t ło
odrę b
men tar
o pad
ut rzym
na pa
potrze by</w>
zamiesz ki
na szym</w>
be k</w>
u szy</w>
j .</w>
men tem</w>
gene rał</w>
powro tem</w>
li zacji</w>
an em</w>
do stał</w>
do koła</w>
psy chi
krzy ż
au stria
z ł</w>
uczest ni
nic ach</w>
mó w
bło gos
al ną</w>
in żynie
dokład nie</w>
ludź mi</w>
jutr z</w>
by tu</w>
la ć</w>
f t</w>
ał u
f el
fina ns
f ol
sk ro
k ę
g ła</w>
konstru k
ja kże</w>
człon kiem</w>
Wil li
nag og
d l
v en
pt .</w>
rz ut
o publi
h ra
świe ż
owi cz</w>
Mi c
p ri
musi ała</w>
ist nienia</w>
a u</w>
za u
ra da</w>
st r
są siad
dz ać</w>
B an
może sz</w>
wod ę</w>
ter ów</w>
spo gląd
ści any</w>
mat u</w>
pa sa</w>
ś miał</w>
I m
bro ń</w>
błę ki
os a</w>
no szą</w>
ie r</w>
sku pi
tra kta
na da
biał e</w>
źród ło</w>
na pisał</w>
dat a</w>
Henry k</w>
G ran
zam or
w anych</w>
obsza r</w>
gie j</w>
wi dy
wi cz</w>
ra ch
to też</w>
ci wszy</w>
zm ę
nie bezpie
sub stan
t wor
zas ady</w>
w skutek</w>
T ade
spoj rzał</w>
c ego</w>
duż ą</w>
ra ć</w>
tow ane</w>
T ro
do n</w>
pała cu</w>
ja kich</w>
mó c</w>
podob ny</w>
Ch e
pod ło
ta len
położ one</w>
k ło</w>
Mię dzy
za prze
po zwala</w>
nie rucho
nie stety</w>
le r
wy r
niz m</w>
po ry</w>
A .</w>
poto m
os ad
od wró
prezyden t</w>
ce l</w>
pocz ątek</w>
pu st
194 3</w>
ja ł</w>
5 00</w>
li stów</w>
jąc ym</w>
ka mien
okrę t</w>
s chro
ri a</w>
nazy wa</w>
Krzy szto
nic twem</w>
mow ie</w>
orygi nal
li by</w>
kości ą</w>
o kie
we wnątrz</w>
p lat
mar t
tele wizy
ał eś</w>
wy budow
o ko</w>
okro p
ost rze
de mokra
czar ne</w>
po par
s hi
kata stro
Sa int</w>
ul ta
kolej ne</w>
pan owie</w>
postanowi ł</w>
deli ka
k ały</w>
głoś no</w>
wy nosi</w>
A b
pod at
uczy nić</w>
ci a
cza sami</w>
szere g</w>
ąc o</w>
ła ńcu
jąc ą</w>
dzie ło</w>
Ch rist
ur o</w>
os i</w>
pię ć
naj ą</w>
i da</w>
sz ąc</w>
194 0</w>
i r</w>
z or
rodzi na</w>
pó r</w>
pra ca</w>
proje kt</w>
g in
d ery
stat ku</w>
dowód ca</w>
ł ów
ti a</w>
men tal
wz bu
le ń
kiewi cz</w>
żon ę</w>
ka wale
ostat nim</w>
lu d</w>
ku pi
nie m.</w>
cyj ną</w>
niemie ckich</w>
u praw
g ie</w>
dłu żej</w>
utrzy my
Stan ów</w>
4 5</w>
ś mi
gor ą
sk ró
u prze
t row
za byt
kape lu
oz dob
każ de</w>
u wie
koście le</w>
sze ść</w>
An gli
pro bo
pły ty</w>
cu dow
L ot
poję cie</w>
większ e</w>
nie mu</w>
S S</w>
a sz</w>
S okra
wi dzenia</w>
Mar ci
by wa</w>
cy wil
E r
wyż ej</w>
se r</w>
C E
kiewi cza</w>
qu e</w>
ró j</w>
chodzi ły</w>
wy kształ
cy fi
dow a</w>
dotych czas</w>
choro by</w>
ą b
prze pły
sto le</w>
ne ra</w>
Wiel kiego</w>
ha m
funk cjon
a gen
ma s
pozna ć</w>
klu bu</w>
zni szcz
przyto m
p w.</w>
ogra ni
gat unek</w>
rzęd u</w>
pa mi</w>
po mina
sł one
profe sor</w>
194 2</w>
prz od
po żegna
ow ca</w>
zwró cił</w>
dzie ścia</w>
E e
zrobi ł</w>
wy ści
kon kur
bo m
dow y</w>
wzi ąć</w>
z ny</w>
kapita n</w>
tu j</w>
departa mencie</w>
mi na</w>
jąc ej</w>
b li</w>
an ka</w>
U r
włas nych</w>
wojewódz twa</w>
osob a</w>
Ed war
Akade mii</w>
ekono mi
u sa</w>
nię ty</w>
G er
regul ar
rzu cić</w>
stoli cy</w>
kon ku
pow ie</w>
dow i</w>
ę k
bie gu</w>
ne mi</w>
j nej</w>
wiat r</w>
kra jów</w>
gatun ku</w>
ał ów</w>
17 7
jedy nym</w>
zw any</w>
połow y</w>
la na</w>
an ki</w>
pow stanie</w>
wykorzy st
od e</w>
cen ę</w>
y w
192 0</w>
k wad
ba b
zach wy
wy sił
dow e</w>
gu ber
ber g</w>
stanowi ska</w>
g la</w>
lu s</w>
przy wód
ni o
d ała</w>
Joh n</w>
f em</w>
ener gii</w>
pos ą
sły n
z gu
Piot r</w>
oba wi
be r</w>
b at
u krai
czy tel
dz ona</w>
miar y</w>
stop ni
wie j</w>
ma z
k łó
zna czenia</w>
ode zwał</w>
zy li
m nó
B re
k nęła</w>
c m</w>
pi ą
pół noc</w>
myśl ą</w>
V I</w>
stycz nego</w>
pan ny</w>
po god
lot ni
siedzi bą</w>
Karo l</w>
przy się
powie ść</w>
e ta
D on</w>
m ot
puści ł</w>
li wym</w>
mó z
tere ny</w>
lite rac
C ol
po gar
pyta nie</w>
m ły
Y o
powst ały</w>
szcze nie</w>
XI V</w>
gi m
p ur
katoli cki</w>
aj ę</w>
zna na</w>
N au
za py
Wil hel
to rem</w>
od był</w>
ci ło</w>
W or
l ny</w>
tow ego</w>
północ nej</w>
fun kcji</w>
kości o
dwa dzieścia</w>
A a
du ży</w>
naj mniejsz
wi ć</w>
nie ba</w>
od er
minu t</w>
przysz łości</w>
W ojcie
pięk na</w>
uśmie chem</w>
ob ró
nie bo</w>
młod ego</w>
do stać</w>
ał ą</w>
Ch o
in du
pił kar
większ a</w>
Związ ku</w>
stycz ną</w>
m ury</w>
wy chow
wie c</w>
po prawi
jeste śmy</w>
ha k</w>
czy mś</w>
włas nego</w>
mow ych</w>
polity k</w>
mię k
for te
z bu
i t</w>
ta rza</w>
p h
ska z
poś red
cy wi
pew na</w>
nę dz
sta mi</w>
nosz ąc</w>
fil mie</w>
ar ów</w>
znajdow ał</w>
u dzie
b lo
środ ku</w>
młod ych</w>
S ar
B la
o pu
nie ć</w>
czy ków</w>
cz no</w>
P en
dz ono</w>
S an</w>
naza jutrz</w>
cz nik</w>
S łu
zł e</w>
ode j
bo ku</w>
per ium</w>
198 8</w>
nię te</w>
Gda ń
sz nie</w>
ni ona</w>
zw ro
ru szył</w>
naj ąc</w>
so lu
pręd ko</w>
Da vi
S h
z rę
P A
pu l
me czu</w>
wy krzy
b le</w>
nicz a</w>
dzi ły</w>
O b
ner w
mógł by</w>
te o
pra gnie
og nia</w>
myśl ę</w>
ż by</w>
ja ć</w>
Mu zeum</w>
pa sa
diece zji</w>
dz kiego</w>
czo ło</w>
południ owej</w>
zapyta ł</w>
wy twór
sty n
d łow
3 4</w>
k owania</w>
Fry dery
pi sze</w>
Karo la</w>
samo dziel
pun ktu</w>
informa cje</w>
gene ral
doskona le</w>
będzie my</w>
0 ,
wal ce</w>
utwor ów</w>
należ ą</w>
ch cą</w>
gie ł
st en
an t</w>
pra c</w>
szczy t</w>
pod pis
grz bie
budy nek</w>
rze ka</w>
S to
ta na</w>
plane to
w ość</w>
t z</w>
po ciąg
pamię t
ukoń czył</w>
198 0</w>
zna komi
ja mi</w>
ń cem</w>
za pad
przy jął</w>
ografi i</w>
mian owicie</w>
u pły
men tarz</w>
ch ach</w>
rozpoczę ła</w>
I r
sy nagog
zaczę ły</w>
licz bę</w>
Z z</w>
ta bli
3 3</w>
wspó lnie</w>
p l</w>
miar ę</w>
maga zy
le ni
kło po
ci ot
T rze
Piot ra</w>
gwiaz dy</w>
pamię ć</w>
Je rzy</w>
sy pi
ko ła
G or
stanowi ą</w>
zi ł</w>
z ła</w>
wi ą</w>
L a</w>
pat ri
H ele
ona mi</w>
K le
szcz er
me n</w>
ka pła
układ u</w>
za tru
mat y</w>
daw nych</w>
t owania</w>
roz kaz
umie jęt
i w
człon ek</w>
sposob em</w>
in ną</w>
na ci
rę kach</w>
przyczy ny</w>
S łowa
dziel nicy</w>
wiel okro
two rzy</w>
se ł</w>
m le
si ó
g ady</w>
kategor ii</w>
śl ą
po stęp
wz rok</w>
ży łem</w>
woj nę</w>
ry nku</w>
poe ta</w>
żołnie rze</w>
z em</w>
pa ć</w>
X V</w>
h od
E le
X III</w>
z nu
t ra</w>
za licz
s we
prze szko
sy nem</w>
ludzi om</w>
czy tać</w>
pły n
ho te
198 1</w>
ał oby</w>
rez ulta
okoli cach</w>
c ał</w>
s for
odci nku</w>
ba tali
zi ę
wiadom ości</w>
po grze
muzy ka</w>
chwi lą</w>
namię t
wy stąpił</w>
jedy ny</w>
u s
mist rz
mi o
pięk ne</w>
he t
C O</w>
ń cy</w>
niemie ckiej</w>
mia nie</w>
cięż ko</w>
wod ą</w>
na ń</w>
k nąć</w>
z ły</w>
z bud
Oli mpi
szed łem</w>
sz ony</w>
go ż</w>
oł ów</w>
K re
ier ę</w>
N owym</w>
t j.</w>
d ół</w>
mu l
ka mieni
L an
o kiem</w>
wst rę
żą da
zna nych</w>
rzeczywi ście</w>
wście k
two je</w>
cz ce</w>
na ra
h al
po rozu
cha mi</w>
do ro
ci u
Japo nii</w>
3 6</w>
p ki</w>
ni ły</w>
niz mu</w>
Ło dzi</w>
uzysk ał</w>
powietrz u</w>
cy f
dzi ło</w>
p lek
to na</w>
spra wa</w>
u wol
stycz nym</w>
ńst w</w>
ro bo
nowo czes
naj więcej</w>
x z</w>
Uniwersyte cie</w>
roz kaz</w>
amp ;</w>
& amp;</w>
198 6</w>
zł ota</w>
wy wiad
Kazimie rz</w>
miejs c</w>
gh t</w>
nię cie</w>
kaden cji</w>
działa ń</w>
duż ej</w>
Bog u</w>
ź ró
sk ór
rów nowa
pew nej</w>
P al
niesie nia</w>
mi l</w>
sz eni</w>
ser wa
sza ć</w>
przysz ło</w>
nicz nej</w>
rze j</w>
Pola ków</w>
od dziel
mow ą</w>
poś pie
bó r</w>
reprezen tacji</w>
ł bym</w>
ko ni</w>
cz ono</w>
charaktery z
mo ni
j ąd
odpowie dni
obo jęt
Wroc ławi
ła m
M c
zoba czy
I s
równo cześnie</w>
f lot
s ąd</w>
pew ną</w>
ś la</w>
głębo ko</w>
fał szy
bra ku</w>
ży ci
nie zwyk
ł ka</w>
st ym</w>
pier si
przyj dzie</w>
cu dz
sił ę</w>
dob rego</w>
zda niem</w>
gł owa</w>
cja lnie</w>
ok rzy
Li t
krót ko</w>
ob li
Henry ka</w>
po cał
sza le
u k
c ych</w>
budow a</w>
wo kali
at ych</w>
północ no</w>
M in
mo mencie</w>
głos u</w>
19 19</w>
ty cznego</w>
zo sta
ste p
i ła</w>
cz ką</w>
po dziel
197 5</w>
de fini
przyja ź
wy biera
go m</w>
r i</w>
słysze ć</w>
cza nia</w>
cie ń</w>
ś pi
pozy cję</w>
f .</w>
sk ami</w>
gnie w</w>
Au st
bada ń</w>
el u</w>
sk rom
szero ko</w>
ni ając</w>
a z</w>
zy g
wzro kiem</w>
uczu cie</w>
włas nym</w>
połu dniu</w>
u l</w>
pole ga</w>
An ge
194 6</w>
li nia</w>
ar gu
m na</w>
ko pal
dod a
ksią żek</w>
katoli ckiego</w>
u kazał</w>
do mów</w>
sk rę
turnie ju</w>
potra fi</w>
zw ło
Komi te
prowa dziła</w>
198 7</w>
ste ro
ona ch</w>
prze niesi
no m</w>
a p
czy n</w>
ni li</w>
z ro
ob rę
ob jął</w>
z mie
południ owo</w>
liw ej</w>
ud ał</w>
lu du</w>
konku ren
największ e</w>
cór kę</w>
zna m</w>
zaczę li</w>
ok ul
jezi ora</w>
reprezen ta
sa mi
jaz dy</w>
sk ały</w>
nie wiele</w>
naz wie</w>
S zw
za pal
trz ę
pat rzeć</w>
z wiąza
za ł</w>
e ro
wi ł</w>
n ąłem</w>
sin gel</w>
przedmi o
f on
no ż
przyjacie l</w>
kon sekwen
Wit ol
więzie nia</w>
pun kt</w>
3 ,
for m</w>
3 8</w>
zazd ro
T ri
książ ę
at e</w>
Kra j
liw ością</w>
u rzę
łac .</w>
stan ow
O t
kró lem</w>
ra n</w>
p su
ko lum
i mienia</w>
przy god
za sta
sk łon
kon stytu
rad ości</w>
e ż</w>
198 2</w>
K ul
śmier cią</w>
zoba czyć</w>
za c
tob ą</w>
hi po
wró cić</w>
gos poda
wy cof
powin na</w>
wst rzą
rze ką</w>
now ał</w>
mał ą</w>
dzie sz</w>
z mien
w ca</w>
sk ać</w>
3 7</w>
ci łem</w>
v an</w>
po ku
ł ki</w>
po został</w>
R ó
p ęd
z le
ow ości</w>
nadzie ję</w>
198 4</w>
c kiem</w>
t wój</w>
pę dz
du sz
ą b</w>
ml n</w>
zwycię stwo</w>
wi od
rodzi n
ą ż
na laz
ona l</w>
g ości</w>
zwo len
wybo rach</w>
któr y
j skie</w>
kro ków</w>
nieu stan
a bym</w>
b in
za z</w>
wy sta
de m
wię ź
wszel kich</w>
Ś w.</w>
u miał</w>
stat y
do zna
ty czny</w>
spo śród</w>
mał ych</w>
ko me
je mnie</w>
dwo rze</w>
bły szcz
le k</w>
wsz a
głę bi
f f</w>
wład z</w>
wz niesi
stosun ki</w>
przy był</w>
największ ych</w>
la su</w>
198 5</w>
ju m</w>
u sunię
wz mian
ę ły</w>
arty le
podob ie
j o
dzie my</w>
tu re
m ro
tr wał
obec ności</w>
Sło ńce</w>
trady cji</w>
ga bi
stycz na</w>
za mieni
nicz ny</w>
8 3</w>
ży ciem</w>
przed sta
widzi sz</w>
bezpoś red
wyso ko</w>
pom or
ana li
let ni</w>
bieg ła</w>
pa nia</w>
ni ło</w>
parafi a</w>
5 5</w>
wyja ś
zie mia</w>
d ie</w>
na de
nazwi ska</w>
k y
wy szła</w>
pozna ł</w>
za rzu
tar g
największ ą</w>
sun ął</w>
od róż
a niu</w>
nadzie i</w>
Chrystu sa</w>
n g</w>
by le</w>
zakre sie</w>
nadzwy czaj
mi sji</w>
Pary ża</w>
p se
t w</w>
ności ach</w>
rząd ów</w>
powi atu</w>
hon or
v a
mod lit
świąty ni</w>
o rze
zaj mow
ty ki</w>
mini ster</w>
lud ność</w>
li wa</w>
mow i</w>
gó rze</w>
li li</w>
przyczy ną</w>
dwa j</w>
nie ch
głów nych</w>
cyj nie</w>
w stęp
G ali
it d</w>
ener gi
T ry
rami ona</w>
po chy
od dział</w>
me dal</w>
tytu łow
z ą</w>
ta nie</w>
pan ów</w>
a sy
stro ju</w>
księż nicz
Aleksand ra</w>
e mi</w>
utwor y</w>
niemie ckiego</w>
wz or
le gi
dw u</w>
bra ci</w>
lubi ł</w>
wy wie
tow ą</w>
rej onie</w>
s prowadz
bibli ote
kolej nych</w>
Lo u
je ść</w>
uczy nił</w>
Mi koł
porząd ku</w>
o prac
i mi</w>
na sza</w>
gru b
ga ż
an g</w>
D ol
od dal
d ur
głów ny</w>
ć mi</w>
ja d
pu sty
cza sy</w>
v ille</w>
Świę tego</w>
z więk
pier ście
o że
dwor u</w>
ki lo
le d
wiel ko
we se
s mo
P O</w>
od mien
for ma</w>
kar ierę</w>
ż one</w>
rob oty</w>
okaza ło</w>
cze ka
papie ża</w>
ow skim</w>
t he
źró deł</w>
przy puszcz
ża l</w>
west ch
w net</w>
h or
r ych</w>
sie r
in na</w>
S pi
zda nia</w>
b en
R ol
wę gier
ostat niej</w>
oba j</w>
ob fi
bra m
I grzy
przed tem</w>
zł ego</w>
artyku ł</w>
D oli
o le
okrę tów</w>
t kę</w>
położ ony</w>
dziew czyn
ł ot
ko p
ą z
wy rzu
przy rody</w>
wy pły
pol sko</w>
ma cie</w>
pro f.</w>
ab solu
or ga
nie woli</w>
J .</w>
sto łu</w>
st ej</w>
g h</w>
bie ż
ró g</w>
i le
198 3</w>
rze go</w>
uczu ć</w>
wy cie
powszech nie</w>
jednost ek</w>
głos ów</w>
D ru
prze gra
ni owej</w>
poś ród</w>
now ie</w>
ra kie
ha m</w>
sz ał</w>
ni kach</w>
głów ne</w>
Włady sław</w>
ci ach</w>
ta l</w>
n g
genera ła</w>
sko czył</w>
pojawi a</w>
o por
Ce sar
znale zi
ata ku</w>
an ę</w>
mu sie
o rze</w>
K ro
ści ł</w>
Wikipe dii</w>
tysi ące</w>
piosen ki</w>
pił karz</w>
łow ie</w>
i lu
budy nku</w>
l nego</w>
wol na</w>
oj czyz
zgin ął</w>
wsze la
powie trza</w>
chę ć</w>
pro sił</w>
o g</w>
o y</w>
n óg</w>
ludz kie</w>
tra m
mili onów</w>
mow e</w>
ście ż
st ają</w>
robi ł</w>
z je</w>
s owe</w>
ja jąc</w>
okaz ji</w>
obo zu</w>
zda nie</w>
H on
stra ch</w>
prze wo
od nale
R z
nieszczę śli
u p
chci ałem</w>
przeci wie
największ ym</w>
Te at
mężczyz na</w>
sto j
cesar z</w>
w chodz
pis mo</w>
al ności</w>
C za
b nie</w>
ł gar
An na</w>
mie szcz
a my</w>
przysz ła</w>
P om
pier a</w>
H ist
warun kach</w>
dwó r</w>
c mentarz</w>
d go
ko goś</w>
za woł
sę dzi
szko le</w>
rz ony</w>
mil cz
c ona</w>
albu mu</w>
Mat ki</w>
rz ami</w>
o fer
si ć</w>
kon su
ek s
ć wi
ni ać</w>
h rab
roz um</w>
ofi cjalnie</w>
histor ię</w>
reli gii</w>
ra t</w>
mieszkań cy</w>
pa c
znalaz ła</w>
jedy ną</w>
ając ymi</w>
Niem ców</w>
mi kro
k se
brą z
kom plek
cha j</w>
szko ła</w>
ż bie
roz waż
pod nie
ist oty</w>
do póki</w>
cze kać</w>
od de
wy god
tow ała</w>
zgo ła</w>
ws piera
sym pat
g le
spo kój</w>
star e</w>
pla n</w>
ce re
większ ej</w>
pew nych</w>
m owania</w>
b rzu
Kró lew
w ców</w>
P lat
dź wi
opuści ł</w>
il le
ci s
197 9</w>
f en
c ó
ła ś</w>
war st
wza jem
gł od
cza so
je nia</w>
Ne w</w>
u szko
B en
u do
i ł
Amery ki</w>
łon i</w>
pis ma</w>
miesz ka</w>
litera tury</w>
Kości ół</w>
sze wi
na reszcie</w>
b ow
odpowie dź</w>
nie spo
g uje</w>
głos y</w>
z mian</w>
szu ka
li s</w>
po niżej</w>
ąd u</w>
mo i</w>
dodat kowo</w>
Ż e
pis arz</w>
mie dzy</w>
d ali</w>
ra jąc</w>
przedstawi a</w>
Kazimie rza</w>
wąt pli
gru pow
s c
ru s</w>
g li</w>
ta nia</w>
ob rze
Bry tyj
nie ba
Rzy mie</w>
t m</w>
me mu</w>
lar ów</w>
Kat owi
u bog
V e
D ro
d raż
pa s</w>
dzi łem</w>
g ły</w>
tow ym</w>
U nii</w>
A d
po ten
za cja</w>
pie l
ko cha</w>
inicja ty
re publi
o si
konty nen
ra mię</w>
dyna stii</w>
mu ni
wol ę</w>
roz sąd
kul tu
Szcze ci
la nie</w>
ob razu</w>
we l
posiad ał</w>
powin no</w>
społecze ństwa</w>
trzym ał</w>
wie niem</w>
Szw aj
e z</w>
w chodzi</w>
rę ka
godzi nie</w>
tek st</w>
środ ków</w>
wa niem</w>
ob wod
dział anie</w>
po praw
bi ały</w>
El żbie
dow ego</w>
zar e
por tu</w>
ad re
książ kę</w>
u su
prze raż
ni éj</w>
ludz kiej</w>
oś wiet
obsza rze</w>
wie niu</w>
twarz ą</w>
rośli n</w>
b na</w>
głu p
ch cieli</w>
Alek san
nie daleko</w>
ma sa</w>
rze czą</w>
ali z
T V
A zji</w>
sze ch</w>
oj cem</w>
. .
ży wo</w>
c ła
określe nie</w>
zdrowi a</w>
po chow
pan owania</w>
K oś
ia l</w>
iz by</w>
mu r</w>
g nia
j skim</w>
głów ną</w>
bre w</w>
wol ności</w>
uro dz
Kra kowa</w>
lot u</w>
miejsc ach</w>
w ki</w>
nios ły</w>
ro na</w>
3 9</w>
197 3</w>
bi a
ob serwa
nicz ą</w>
m ny</w>
p s
z ją</w>
nau k</w>
księż na</w>
i den
nor mal
cał ości</w>
S c
197 8</w>
puści ć</w>
pie choty</w>
par ty
che r</w>
francu ski</w>
197 0</w>
war to</w>
chodzi li</w>
wal k</w>
pozost aje</w>
świę ta</w>
druży ny</w>
zakoń czeniu</w>
sta cja</w>
ga nia</w>
d ając</w>
okrą ż
i ny</w>
b aj
w na</w>
g war
wy nika</w>
kow skiej</w>
me tal
ni ny</w>
gos pod
roz strzy
du ch</w>
g le</w>
za pis
koń c
zdecy dow
przy pomina
pod róż</w>
obec ność</w>
X II</w>
y by</w>
ła ska
wie dząc</w>
i c
zależ ności</w>
al bowiem</w>
am ba
mia stem</w>
at ów</w>
wa g
i c</w>
ni j</w>
cyk lo
zauwa żył</w>
roz gry
pa nie
a ktor</w>
należ ało</w>
og lą
każd ą</w>
ok no</w>
te jsz
syn te
197 6</w>
król owa</w>
197 2</w>
od y
ob szer
pat rzy</w>
Mi ch
ru chem</w>
o ma
myśl nie</w>
dz kiej</w>
Pozna niu</w>
P R
mał ej</w>
przemy słow
filozofi i</w>
fir ma</w>
V a
upad ku</w>
par y</w>
naz jum</w>
ber t</w>
ok ą</w>
u to
ra ła</w>
ra r
przeciw nie</w>
G dy
ar d</w>
7 5</w>
z da</w>
cz uje</w>
k wia
Włady sława</w>
ści śle</w>
t ii</w>
X I</w>
kompu terow
n .</w>
czer p
n éj</w>
s owi</w>
prac uje</w>
pos ł
ę li</w>
le kar
Ka tarzy
po chod
ne y</w>
mor der
czy cy</w>
in f
sez onu</w>
do ktor</w>
przesz łości</w>
król owej</w>
po stanowie
części owo</w>
emi gra
h ała
niemie ckie</w>
dotych czas
godzi nę</w>
ry n
por tre
j .
Je rzego</w>
G łów
ma sz
dale ka</w>
s owie
ci ar
si s</w>
P o</w>
ografi a</w>
lek ko
zł oty</w>
v o
po ma
pun któw</w>
wsza kże</w>
ma ksy
tor y
wange li
wa gi</w>
aut ora</w>
kan o
an gaż
włas ności</w>
Na pole
uważ ał</w>
prosi ć</w>
n ąwszy</w>
mian ę</w>
gi tar
F in
przysz łość</w>
miesz cza
W oł
Par k</w>
powod uje</w>
posiad ają</w>
sy nów</w>
da cji</w>
czar ny</w>
zało żył</w>
o znaj
chwy cił</w>
mal ar
ter u</w>
prze stęp
wybu chu</w>
nie bie</w>
ł oby</w>
tech nolog
B r
ści a
4 ,
man n</w>
sin giel</w>
p łu
i mieniu</w>
na t
pod jął</w>
gru p</w>
myś liw
zdaw ał</w>
mo jego</w>
trz a
wy znacz
zwycię z
koch any</w>
do łą
siost ry</w>
6 4</w>
b r</w>
mow ej</w>
ru szy
wi r
u stanowi
E x
jednost ka</w>
dz wo
na rodu</w>
Sta nach</w>
ko w</w>
st adi
w ul
n ota</w>
męż czy
le cia</w>
fo te
czter dzie
ma r</w>
se kun
f ie
N owej</w>
196 8</w>
ń sko</w>
ostat niego</w>
charak terze</w>
obó j
rodzi ców</w>
ob jawi
kow anych</w>
prze kaz
a stero
opera cji</w>
nie prze
są dzę</w>
e w
sły chać</w>
s ora</w>
z łu
wy gna
star ych</w>
o czami</w>
ho mo
warun ki</w>
zna czeniu</w>
ist a</w>
li wi
bliż ej</w>
że ś</w>
T ele
le niu</w>
C u
ko ły
pró by</w>
odpowiad a</w>
m p
wie dzą</w>
ś rodek</w>
z dziwi
prawo sław
17 8
czy t
za rządz
prze kro
C am
Mistrzost wa</w>
rozu mu</w>
powie dz</w>
dziw nie</w>
zbudow any</w>
I za
kła m
dzi ało</w>
4 8</w>
jas ne</w>
rodzi nie</w>
Mi chał</w>
nic ki</w>
uży wa</w>
re kor
po bli
le sie</w>
197 4</w>
g ał</w>
Północ nej</w>
wybra ny</w>
istnie nie</w>
ku zy
bie g</w>
pierwot nie</w>
mod er
ko ron
Jor ku</w>
podob no</w>
kro ć</w>
u x</w>
i ca</w>
eksp lo
ob ia
k ałem</w>
le karz</w>
obejm uje</w>
l nym</w>
prze tr
na czy
cze ka</w>
wz rusz
w rza
op er
sie dzi</w>
d ają</w>
wzię ła</w>
słysz ałem</w>
n ąc</w>
D re
A dam</w>
za bezpie
u ści
cz en
194 7</w>
konie cznie</w>
An t
196 7</w>
uj rzał</w>
pro pa
ob razy</w>
a .</w>
le niem</w>
języ kiem</w>
eksp ery
Z am
kana ście</w>
Aleksan der</w>
nag rodę</w>
ze gar
słu żył</w>
row y</w>
za się
te z</w>
ludz kich</w>
6 5</w>
konstru kcji</w>
g rze</w>
P ot
wy grał</w>
ży ło</w>
wyda na</w>
u nie
Wło szech</w>
młod a</w>
roze gra
niesie nie</w>
mówi li</w>
rzu ciła</w>
kolo ni
u zupeł
mo na</w>
pozost ał
pa mi
dzie ł</w>
p ty
or dyna
ba k
Pa na</w>
re je
M ur
kieru n
gatun ki</w>
Je zi
do my</w>
zależ y</w>
wrześ niu</w>
ter min</w>
inter pre
fe r</w>
Lu bli
planeto ida</w>
zę by</w>
193 8</w>
szla chci
sta m
forma cji</w>
wystar cz
ust al
żad ne</w>
związ anych</w>
wi dz
li ni
l ad
5 6</w>
lew ej</w>
G o</w>
tre ści</w>
u działu</w>
Alber ty
uży wany</w>
n p</w>
Wiel ki</w>
Króle stwa</w>
sk al
ni komu</w>
di ab
Ludwi ka</w>
C zy
u ci
pa ść</w>
ni onych</w>
Wło ch</w>
ry wa
Wiel ko
N ar
z dob
chłopa k</w>
ak cja</w>
mar gra
nie poko
listo pa
kwiat y</w>
war i
Rzy mu</w>
d na</w>
tro poli
hra biego</w>
prze ba
mog ąc</w>
dob rym</w>
zie m</w>
szcz u</w>
Londy nie</w>
powró t</w>
duż ych</w>
aj cie</w>
na pełni
da j</w>
trzy mać</w>
praw ej</w>
st ad
opowiad a</w>
j nego</w>
obo je</w>
mal a
T er
je dzie</w>
kt a</w>
Szwaj car
K os
małże ństwa</w>
3 00</w>
ci ami</w>
ni ało</w>
polity cznych</w>
ele mentów</w>
lin g</w>
by łaby</w>
b ki</w>
bezpiecze ństwa</w>
al ko
pod kre
klasztor u</w>
for mę</w>
na gł
pod wod
największ y</w>
kan ów</w>
si at
3 0
ko t
du ża</w>
Mini ster
pły ta</w>
myśl ałem</w>
w nu
k ując</w>
tro nu</w>
chle ba</w>
z dzi
wal czył</w>
ha u
s ją</w>
olo g</w>
ele menty</w>
. 0
ra j
pięk ny</w>
a tak</w>
E li
ży cz
s at
rz ą</w>
sz one</w>
sk lep
roz leg
F un
prze to</w>
da r</w>
spot kał</w>
s pó
o dzie
w brew</w>
e du
łą czy</w>
ma cie
wra ca</w>
m nie
le pi
gwiaz d</w>
cze kał</w>
got ów</w>
Woj sk
194 8</w>
sil ne</w>
ce chy</w>
Ta k</w>
u spoko
Pu cha
196 9</w>
powst aje</w>
eg zem
Krzy ża
mil czeniu</w>
na ślad
kos mi
polity ki</w>
peł en</w>
połu dnia</w>
podob nych</w>
Z i
maj ątek</w>
samo lot</w>
ko n</w>
Republi ki</w>
on s</w>
I i
Ja ro
uzy ska
so cja
s pły
Cen tra
G al
j. a.</w>
Pi a
lek ko</w>
gabi ne
zwa niem</w>
sy p
prowa dzenia</w>
li wych</w>
zwierzę ta</w>
wa h
cięż ar
R og
Pa ra
zby t
przyj ąć</w>
zu ch
zaj mował</w>
mie rze</w>
m ym</w>
na kład
d ra</w>
związ any</w>
sk ło
pla cu</w>
w pół</w>
olog ia</w>
rozu mie</w>
w łącz
usta ch</w>
kil kanaście</w>
rzą dy</w>
prze bieg
st rów</w>
sz ó
4 2</w>
u kaz
tysi ąc</w>
J ad
szczę ś
nię ta</w>
prze ślad
sze niu</w>
Mia sta</w>
pot wor
al ność</w>
sze ściu</w>
s owy</w>
S am
S .</w>
u mie</w>
słu chał</w>
po myślał</w>
ła ć</w>
te d</w>
występow ał</w>
stra chu</w>
pat rz</w>
mał żon
ko pi
po glą
S pe
za ci
wie działa</w>
o l</w>
195 6</w>
d ry
Uni ver
ę t
ości ach</w>
k owanie</w>
c le
197 7</w>
sprawied liwości</w>
pe k</w>
met ry
pu s</w>
li ści</w>
kolej ny</w>
H it
sty ki</w>
siost ra</w>
ha n</w>
4 4</w>
ści sł
H am
5 4</w>
łow y</w>
od tąd</w>
o w</w>
in dyj
s wymi</w>
przestrze ń</w>
powy żej</w>
decy d
doświad czenia</w>
d ó
cz uję</w>
dow any</w>
V II</w>
towarzy sz
sre b
d wie
chło piec</w>
20 12</w>
N owego</w>
chwi l
bra ła</w>
współ pracy</w>
dow ci
nie cierp
woj sko</w>
tu s</w>
no mina
bur g</w>
w ością</w>
przykład em</w>
so ju
u łat
d anego</w>
Woj ska</w>
kwa li
Mikoł aja</w>
urzą d</w>
wspom ni
mał ym</w>
w ne</w>
niezmier nie</w>
dob rą</w>
ci ał</w>
uży wane</w>
stos ow
człon kowie</w>
u ż</w>
miar u</w>
bo ra
bie nia</w>
ty dzień</w>
tłu m</w>
po licz
ni ają</w>
gru pę</w>
po dział</w>
oku pa
li czyć</w>
re la
Biał oru
od wro
skrzy d
ci o</w>
ma c
da wać</w>
rzu ca</w>
e wolu
ty p</w>
po mag
świę tego</w>
r in
mo rzu</w>
co fa
ze wnątrz</w>
un d</w>
po kar
pasa żer
łow i</w>
maj u</w>
or bi
cz nością</w>
li ły</w>
zasa d</w>
skła dzie</w>
K al
spoko ju</w>
jed ne</w>
cyklo pe
ty czna</w>
pisa nia</w>
s owych</w>
fina le</w>
zau fa
wy pełni
k owana</w>
j ka</w>
K sią
ze l
t onem</w>
wa n</w>
gó r</w>
4 00</w>
funk cje</w>
z ba
cho rob
m niejsze</w>
waż ne</w>
ka mień</w>
h i</w>
so li
pier wia
s pod
daw nej</w>
ś licz
szko d
i ście</w>
195 0</w>
zwy cięż
spot kać</w>
bó l</w>
przy wiąza
Między narodow
wys okie</w>
zie mie</w>
kon kre
G il
zatrzym ał</w>
osie d
Andrze ja</w>
rosyj ski</w>
osie m
tr o</w>
słu chać</w>
studi ował</w>
przeważ nie</w>
b lu
księ dza</w>
ary st
m ne</w>
dług ość</w>
po go
ś miał
wi ny</w>
r gi
dz onych</w>
za projekt
wy zwo
wi kipe
jech ali</w>
zada nie</w>
amerykań skich</w>
pie s</w>
kie szeni</w>
dziw ne</w>
wszyst kimi</w>
re zy
ar mia</w>
znaj dzie</w>
wszy t
W er
A te
poszczegól nych</w>
założ ony</w>
v an
dz ając</w>
za ro
sti wal
ochro ny</w>
Rzecz pospolitej</w>
u ło
pse udo
rzym sko
wy maga</w>
s nu</w>
tyl u</w>
wol ność</w>
i grzy
na daw
ide i</w>
T he
należ ał</w>
mi ny</w>
gie go</w>
astero id</w>
przer wał</w>
oś wie
odby wa</w>
kie li
re ne
pała c</w>
tra gi
zł oś
wy kon
naj pięk
Li p
dziesiąt ych</w>
an dii</w>
zapom ni
ow szem</w>
cz ko</w>
ży wszy</w>
two rzenia</w>
rę ka</w>
i ro
pom nik</w>
by ście</w>
żad na</w>
próż no</w>
mie ści</w>
nie l
tytu łu</w>
ga m</w>
ar a</w>
ow ska</w>
stos owane</w>
di o</w>
tworz ąc</w>
k ły</w>
me l
po ta
kocha m</w>
sil ny</w>
na szą</w>
Ty lko</w>
mat kę</w>
w zy
papie ż</w>
mode l</w>
B ał
sp al
pow ol
ko ń</w>
tere n</w>
g ol
S mo
v y</w>
zamieszk ują</w>
d anej</w>
B il
c cy</w>
sj ona
k we
dro ż
do ktora</w>
jeź dzie</w>
d on
d any</w>
pojawi ł</w>
M ona
no s</w>
k nie</w>
M en
nieba wem</w>
mieszka nia</w>
ka pł
stos uje</w>
ma gi
Kra ków</w>
w raż
daw nego</w>
z musi
in styn
w .
C i</w>
wiel ce</w>
sty l</w>
kt ry
do puszcz
Południ owej</w>
roz oli
d łoni</w>
ma ch
S T</w>
podob a</w>
nieszczę ście</w>
d niem</w>
at or
wy tłuma
twórcz ości</w>
kobie tę</w>
dr g
rę kami</w>
Rober t</w>
nia k</w>
mat ką</w>
amerykań skiej</w>
kom ple
m ych</w>
czerw cu</w>
Ale ż</w>
S łow
świę ty</w>
we zwaniem</w>
got y
cór ką</w>
u cha</w>
sta ran
4 7</w>
par ku</w>
stru ktu
f or</w>
Austra lii</w>
za pi
pro sto</w>
czy nić</w>
b ri
K ol
zd ą
nagro dy</w>
maksy mal
An dre
pe n</w>
a para
na po
dowódz twem</w>
auto rem</w>
okrąż ająca</w>
nau kow
ka rabi
leż ał</w>
po kaz
kład u</w>
czy tał</w>
za ata
192 1</w>
nie wia
awan s
ło m</w>
sto pień</w>
nie dawno</w>
śmie sz
te rem</w>
po su
mająt ku</w>
de k
t owana</w>
wygląd a</w>
o b</w>
H y
śl ady</w>
s owa</w>
od dać</w>
od była</w>
5 2</w>
prze niósł</w>
p łó
i ch
gł ad
za ku
per ku
H or
wątp liwości</w>
Pi ł
zrozu mieć</w>
na bo
cięż kie</w>
R om
I X</w>
194 9</w>
h tt
że g
jaki ch
gra ć</w>
za bój
stra cił</w>
zdoby ć</w>
ra s</w>
na pad
T or
w cy</w>
pod leg
ro cz
że bym</w>
obia d</w>
włas ny</w>
ta cy</w>
muzy kę</w>
Sz tu
strze m</w>
reprezen tan
re sta
prze chow
dz won
chłop ca</w>
c ono</w>
kultu ral
czy ny</w>
za bu
R od
w ający</w>
prze nik
powst ało</w>
. pl</w>
zbi ór</w>
k sa</w>
htt p</w>
Da wi
od gad
l ada</w>
wan ym</w>
zg ło
ia na</w>
powro cie</w>
dz ają</w>
rad ość</w>
Amery ce</w>
naj gor
prze czu
po boż
Fe de
młod ości</w>
u ch</w>
ra cję</w>
len der
uj ę
stąpi ło</w>
okrę ty</w>
mał ego</w>
la sy</w>
biał ych</w>
zakoń czył</w>
wiadom ość</w>
o ch</w>
T re
poe zji</w>
krą ż
we szła</w>
in spi
a rab
By dgo
za i
szy st
j nym</w>
h o</w>
bra n
mini stra</w>
ka zy</w>
j ąć</w>
budow ie</w>
połą czenia</w>
dziewczy ny</w>
s os
da n</w>
Me ksy
okrę tu</w>
zre zyg
stwo rzył</w>
cy tuj</w>
pro gu</w>
młod e</w>
S ol
je zd
dy stry
pie śni</w>
stos unek</w>
po gląd
pac jen
dz kim</w>
k cja</w>
w ł
spotka nie</w>
duż ym</w>
tytu łem</w>
Te re
ci m</w>
za dowo
te ry</w>
roz le
powst rzy
wspani ał
kaza ła</w>
dy sk
C an
po sto
otwo rzył</w>
j k</w>
czyn ności</w>
ar i
Stefa n</w>
przy ci
cz ała</w>
bog ów</w>
m ości</w>
puł ku</w>
du chu</w>
5 3</w>
k li</w>
6 6</w>
st ół</w>
kuch ni</w>
pisa na</w>
miesi ąc</w>
me lod
ą t</w>
prawdzi we</w>
t owanie</w>
ru chy</w>
Augu sta</w>
wojen nych</w>
h ie
mi strzem</w>
artyku łów</w>
środ ka</w>
prac ować</w>
zjawi sko</w>
zdrow ie</w>
Pre zyden
bo k</w>
stam tąd</w>
prób ował</w>
ologi czne</w>
j an
har mo
D ra
195 7</w>
trud ności</w>
fer y</w>
większ ych</w>
tworz ą</w>
w ska</w>
tr wa</w>
f ów</w>
I S
4 3</w>
usz u</w>
roz mowę</w>
epo ki</w>
s przy
głów nej</w>
warun ków</w>
ist y
świad o
pi ó
We ne
wi c
owi cza</w>
ch ii</w>
potrzeb ne</w>
lat y
oby czaj
B ran
4 1</w>
ow skich</w>
stycz niu</w>
Ros ja
kro k</w>
ka n</w>
j ska</w>
g y
Sokra tes</w>
z ry
sti tu
po żar
od rzekł</w>
na pię
dzie cię
trafi ł</w>
ry ch
her bu</w>
Woj ny</w>
w skich</w>
stą pi</w>
sk ała</w>
spa ć</w>
małże ństwo</w>
W an
znajdow ała</w>
ur i
cza j</w>
nicz nego</w>
kul tur
przy pis
le s
wi działa</w>
wal ka</w>
spoj rzenie</w>
Kali for
ta kimi</w>
przedmi ot</w>
k ąt
cie go</w>
wy obraż
ó wek</w>
czą ste
lat ar
I gna
na raz</w>
D ąb
Ada ma</w>
sta rał</w>
19 17</w>
musie li</w>
P y
w ny</w>
ś ń</w>
s owej</w>
mnó stwo</w>
ł ością</w>
wią zy
rodzi n</w>
koń czy</w>
196 0</w>
wa my</w>
hi tle
da na</w>
czy łem</w>
rewolu cji</w>
zar y
niez będ
le ni</w>
zdoł ał</w>
sy l
ser ial</w>
po miesz
ucze l
przy stan
Franci szka</w>
w ające</w>
rza wszy</w>
rozumie m</w>
ofiar y</w>
b ał
N A</w>
no n</w>
skó ry</w>
ory z
bez względ
złot ych</w>
zi ar
sztu ka</w>
siedzi ba</w>
mo cą</w>
bior ąc</w>
służ bę</w>
poli cji</w>
dział am</w>
193 6</w>
wrę cz</w>
uj a</w>
ró b</w>
par y
otrzym ała</w>
bod aj</w>
197 1</w>
szk lan
pozost ałe</w>
gł ąb</w>
auto maty
towarzy stwie</w>
row a</w>
ad u</w>
zm niej
ma sy</w>
im pre
utwor u</w>
t ry</w>
let niej</w>
J a</w>
zmieni ł</w>
proce su</w>
sza bl
oj cu</w>
st ale</w>
ma ma</w>
bu l
odpowie działa</w>
ie c</w>
dzie wi
są sied
sz ko</w>
dziew czę
196 5</w>
wie ży</w>
dow ą</w>
char u</w>
mian owany</w>
wal kę</w>
fil my</w>
I ie</w>
Ja giel
ska wi
he r</w>
sied em</w>
wa gę</w>
przy łą
jed wa
pocz ąć</w>
nicz o</w>
wiecz ora</w>
sąd u</w>
dyna mi
N ow
zwie rzch
do chod
sz o
ra ją</w>
pięk ną</w>
og rodu</w>
rze z</w>
mi ot
kow ała</w>
czu ła</w>
do sta
S cho
sce ny</w>
człowie ku</w>
rz one</w>
wy kry
F lo
przy rod
prote stan
Towarzy stwa</w>
trze ciej</w>
miar ów</w>
pozost ałych</w>
pozi om</w>
krzy ż</w>
kon serw
większ y</w>
wa j</w>
mistrzost w</w>
dzien ni
Wrocławi u</w>
M el
B rze
dziedzi nie</w>
nau kę</w>
d rze</w>
na by
po ga
do pły
pat ru
nie wątpli
5 7</w>
5 1</w>
prze pis
powie działem</w>
Par tii</w>
wy twarz
mąd ro
pa ń</w>
u prawi
ofi ar</w>
sze mu</w>
m ający</w>
tere nach</w>
Aust rii</w>
j na</w>
żołnie rz</w>
kro kiem</w>
Mar ek</w>
miesi ąc
mi ła</w>
to rze</w>
dwo je</w>
ciem ności</w>
G ol
Bo ż
świet le</w>
kontro l
ad y
skrzy dła</w>
świadom ości</w>
p sy</w>
bol szewi
Jezu sa</w>
na ród</w>
De mokra
wa li
na ć</w>
lu bi</w>
19 14</w>
ńczy ków</w>
poczę ła</w>
za debiut
umar ł</w>
u da</w>
L y
w ających</w>
le n</w>
A f
ś miało</w>
szcz em</w>
le ga
6 2</w>
stopni owo</w>
st ałe</w>
samolot u</w>
regi onu</w>
na sy
wan ego</w>
Je rozoli
wy jechał</w>
wie ść</w>
H il
196 4</w>
s przeci
196 6</w>
ow ałem</w>
ró b
oś nie</w>
autor stwa</w>
puszcza ć</w>
S hi
Rze szy</w>
de mu</w>
u n</w>
okolicz ności</w>
za l
kam panii</w>
nog ami</w>
cz onej</w>
sze niem</w>
jezi oro</w>
pog rą
k ego</w>
bi i</w>
prze sy
drze wo</w>
sie dem
przyjacie le</w>
przeciw nika</w>
po strze
kon feren
ty ka</w>
prze kra
do prowadzi
wę gla</w>
mi ły</w>
sztu k</w>
niespo dzi
na sto
A li
Sa mo
liz m</w>
P od</w>
ko t</w>
fa kty
prze cha
mo st</w>
miłos ier
Pa ńst
ostat nia</w>
two ja</w>
ogrom ne</w>
Be ne
s wa
och ot
cel ów</w>
tor y</w>
Ra dzie
róż no
be l</w>
ze sta
ludz kiego</w>
192 2</w>
wie cie</w>
ka nia</w>
ły by</w>
gra nicę</w>
znaj o
usi łow
słu żyć</w>
następ uje</w>
edy cji</w>
je śli
R am
we ź
s puszcz
peł ną</w>
Mi chała</w>
będ ący</w>
prawi dłow
obywa tel
jas no</w>
bie gł
stro nach</w>
7 2</w>
dźwię k</w>
działa cz</w>
wi n</w>
A c
stru kt
at le
A s
wy rzuc
w ale</w>
peł nym</w>
me da
cz ku</w>
cał ość</w>
bra cia</w>
ow ce</w>
na tura</w>
aj ów</w>
wzro stu</w>
bie c</w>
a kade
ja ś
Wy so
resz tę</w>
u ja
tygod ni</w>
mi ne
zach ę
mar cu</w>
T rój
sam obój
przy mu
k ało</w>
gra nic</w>
J ose
p ał
dzi wa
D el
6 3</w>
przyczy n</w>
la nia</w>
5 ,
za wdzię
za mian</w>
szcz u
rz ów</w>
pol ską</w>
do larów</w>
z mierz
nie zwykle</w>
6 7</w>
zw ane</w>
star ej</w>
u sił
kazy wał</w>
bi l
ja m</w>
stra te
2 .
zapro ponow
z gi
reży serii</w>
sz kole
miesz kał</w>
ar che
krę gu</w>
Stefa na</w>
G ot
samolot ów</w>
Z o
roz dzie
por ta
spotka nia</w>
pi ą</w>
ter ro
oj c
pyta nia</w>
hitle row
wz moc
l s</w>
S ha
Naj święt
u rucho
B on
s pu
pami ąt
ni ono</w>
A na
s ał</w>
na przeciw</w>
na cji</w>
czyst e</w>
T al
wypad ek</w>
k lat
bra tem</w>
Wi ę
za biera
o cie
h ej</w>
cz oną</w>
wielokro tnie</w>
ni kom</w>
kształ cie</w>
połą czenie</w>
mie się
u po
krzy knął</w>
wo ka
za cze
uśmie ch</w>
teo re
pos ła</w>
łóż ka</w>
rz owi</w>
ra ca</w>
li cen
stra ż
liz mu</w>
gru dniu</w>
Im perium</w>
paździer niku</w>
następ nego</w>
do ń</w>
da my</w>
wan ą</w>
pro cen
po bytu</w>
od dał</w>
b os
S tru
N owy</w>
6 8</w>
słusz nie</w>
ple mi
m ość</w>
196 2</w>
kar y</w>
b ne</w>
I .</w>
szcze rze</w>
Wy ż
d ało</w>
S towarzy
sz kół</w>
powiad ał</w>
ry zy
rozpa czy</w>
prze mawi
V ol
Mu si
jed ni</w>
s co</w>
ki n</w>
4 6</w>
ę p
spraw ą</w>
ce k</w>
er s</w>
al d</w>
dzi a
Qu e
poło żenie</w>
fil mów</w>
V III</w>
Cen trum</w>
C zę
skry p
ofi cer</w>
książ ka</w>
bar wy</w>
and ar
192 4</w>
wyso ki</w>
bó lu</w>
wyd at
ge ografi
193 0</w>
opie ku
hand lu</w>
poz or
wy dzie
teat ral
kiedy kolwiek</w>
an tów</w>
K ot
b ok
te li
opi s</w>
5 8</w>
świa tem</w>
wyso kość</w>
kapita na</w>
uży te
tow anych</w>
je nie</w>
powo ła
kow ano</w>
okrę gu</w>
języ ków</w>
An ny</w>
0 0
li gi</w>
król owi</w>
S wan
z mienia</w>
zan u
wo la</w>
mi ł</w>
z ra
Pe ter
za angaż
wi ta
stosun kowo</w>
roz ryw
myś le</w>
js i</w>
czu ć</w>
ser wi
okre śli
po chyl
hipo te
ca l</w>
ń scy</w>
ś mie</w>
ob da
kro p
je chała</w>
ste in</w>
pre fe
czerw one</w>
Ko re
woj ow
ser ia</w>
h c</w>
piosen ka</w>
g dym</w>
Prze my
Geor ge</w>
szy ję</w>
pły nie</w>
reali z
ra ny</w>
a e</w>
At lan
wzro st</w>
we z
kwi t
do chodzi</w>
za du
poe ty
po chodzą</w>
Mo rza</w>
przesz ka
mówi łem</w>
fi li
193 7</w>
organiza cja</w>
naj prawdopodob
kl ien
rz ach</w>
rozstrzy g
or gan
daw ne</w>
wyd ała</w>
wil got
wie my</w>
zawoł ała</w>
praw em</w>
za ra
zdol ności</w>
spra wach</w>
sierp niu</w>
n nej</w>
młodzie ży</w>
drug ich</w>
nie sz</w>
na t</w>
ludz kości</w>
dowód cy</w>
S trze
Ber linie</w>
cz onym</w>
an na</w>
K ru
rz ałem</w>
ob ło
najlep szych</w>
dotycz ące</w>
stra ty</w>
siad ła</w>
móz gu</w>
ał aby</w>
Jad wi
szep nął</w>
liw i</w>
Afry ki</w>
przyja źni</w>
mówi ono</w>
bo m</w>
wyj ść</w>
w padł</w>
na l</w>
stosun ków</w>
sie ć</w>
Krzyszto f</w>
u sposob
przy słu
wy bi
try bu
prowa dzenie</w>
z o</w>
prze chodzi</w>
obo ję
9 5</w>
p łon
inicjaty wy</w>
pew ny</w>
par a</w>
francu skiej</w>
szczegól ności</w>
zi a</w>
mow any</w>
pow rac
tr ąc
sukce s</w>
stiwal u</w>
oba wy</w>
dług ich</w>
ti n</w>
dow ód</w>
ło dzi</w>
pł ci
otwar te</w>
no mi
za kry
jak kolwiek</w>
T ho
cz ają</w>
założ ona</w>
powi at</w>
ła ski</w>
st r</w>
społe cznych</w>
posta cie</w>
okre śla</w>
niesie niu</w>
sk ali</w>
8 5</w>
pe l
Ś rod
te ni
ro s</w>
zakre su</w>
powie rz
mow ego</w>
Ka ra
wy prawy</w>
czerw ony</w>
czer wie
L or
trzy ma</w>
peł na</w>
uli c</w>
ów kę</w>
daw ała</w>
cza p
Me di
gru pie</w>
cza nie</w>
charak teru</w>
Z bi
zoba czył</w>
łóż ku</w>
wnę trza</w>
s s
A T
ó dł</w>
wan ej</w>
t .</w>
f u</w>
kle j
bru d
zw ała</w>
pod aje</w>
listopa dzie</w>
li st
K S</w>
po szła</w>
wiecz or
w stąpił</w>
p łod
M S</w>
zakon u</w>
op ła
ko szy
so m</w>
ni owe</w>
B at
mie j</w>
mary na
oficer ów</w>
kr wią</w>
kwiet niu</w>
j ną</w>
Gre cji</w>
C la
zada niem</w>
medy cy
ty łu</w>
najlep szy</w>
m ające</w>
chwi l</w>
złot e</w>
powierzch nię</w>
pi sto
miesi ące</w>
bole s
wza jem</w>
przy ro
opowiad ał</w>
za chodzie</w>
roz powszech
okaz uje</w>
cze ństwa</w>
Państ w
wspól nego</w>
stanowi sku</w>
t ują</w>
wo dz
u stęp
ow ość</w>
lip cu</w>
si on</w>
par u</w>
Szwe cji</w>
Gene ral
ude rz
sie działa</w>
T om
S k
nie długo</w>
amerykań skiego</w>
najprawdopodob niej</w>
wa sz</w>
zgin ęło</w>
komen dan
uro dzony</w>
gra nicach</w>
kasz te
sz ka
zasa dzie</w>
je k</w>
roz ciąg
po pełni
nic kiego</w>
c ol
Mistrzost w</w>
Kon gre
10 00</w>
tek stu</w>
o patrz
ce um</w>
zachod u</w>
rab in
kie w</w>
wie rzyć</w>
ry s
przy chodzi</w>
odpowiedni o</w>
N at
wład cy</w>
przyjacie l
fi zj
forte pi
Fa bry
z razu</w>
Be z
środ ki</w>
un ki</w>
myśl ała</w>
w ęż
tow ano</w>
rozko szy</w>
la cja</w>
poważ nie</w>
któ ż</w>
D ow
pro m
k g</w>
dwu krotnie</w>
195 5</w>
za zna
krót ki</w>
wy nalaz
pod ał</w>
k rza
bły skawi
kolej no</w>
stru ktury</w>
egzem pla
nu mer</w>
następ ujące</w>
e sk
Lw owie</w>
ując ymi</w>
roz kosz
rodzi ce</w>
przy zwo
pro to
196 3</w>
sytua cja</w>
aut obu
x i
o cz
mi ano</w>
spo zy
s łem</w>
ja ją</w>
192 5</w>
s no
z miana</w>
pat ro
nau ka</w>
zjawi ska</w>
kosz tow
sa k
nie podobna</w>
ga le
błą d</w>
wo ź
jed e
Gran d</w>
6 9</w>
za łat
ka p
dyre ktor</w>
193 4</w>
jeż d
brze g</w>
Nor we
na wiąz
Wor ld</w>
niemie ckim</w>
li czy</w>
ur ą</w>
D o</w>
bó j</w>
Z ofi
cz onego</w>
D łu
la tem</w>
B lo
sze f</w>
do ra
u sły
scy pli
195 8</w>
ko chać</w>
amba sad
pozio mie</w>
t ka
szu kał</w>
Ludwi k</w>
zu ł
wy razem</w>
V al
z większ
miejsc em</w>
po bu
na mi
be zw
weso ło</w>
D ie
195 4</w>
drob ne</w>
Fe li
odci nek</w>
gen ty
ww w.
tysi ąc
od prawi
i mieniem</w>
ostat nią</w>
terytor i
opor u</w>
now any</w>
gra nice</w>
do kąd</w>
O ce
przy gląd
nie sły
musi my</w>
in tele
ra m</w>
oddział ów</w>
me tropoli
6 1</w>
nie dź
do s
wierz cho
prze su
błogos ławi
wy klu
Wy sp
wró ciła</w>
sz tał
p sa</w>
póź no</w>
dob rej</w>
angiel ski</w>
te j
met ody</w>
Pa le
0 1</w>
pozna nia</w>
To masz</w>
w ka</w>
sza mi</w>
wi sz
słu ży</w>
dokona ł</w>
znajd ujący</w>
ude rzył</w>
przeciwie ństwie</w>
kaza ć</w>
aktor ka</w>
pat rzał</w>
europej skich</w>
mod y
biał ą</w>
na iw
pro fi
ga nie</w>
bli ź
Europej skiej</w>
mie ści
swe mu</w>
po kładzie</w>
C al
T oru
C zy</w>
słow ia
przywi le
ot wor
fir mę</w>
cudz o
Księ ży
związ ków</w>
dług im</w>
przedmio tem</w>
B ud
Wie dniu</w>
każ demu</w>
przyjacie lem</w>
i re</w>
196 1</w>
praw dą</w>
ie j</w>
Narodow ej</w>
u z
środowi ska</w>
najlep sze</w>
czar nych</w>
choro ba</w>
sz kie
zło żył</w>
zm ów</w>
t wego</w>
o żywi
193 5</w>
gwałtow nie</w>
do kony
szcze niu</w>
ho lender
powin ny</w>
cier pie
zbrod ni</w>
mon t</w>
ni kowi</w>
lo m</w>
m no
pro t
A dol
195 1</w>
inten syw
dzię k
ur ów</w>
su ger
s che
Ukrai ny</w>
nau kowych</w>
za stąpi
zbli żył</w>
wie ki</w>
f e</w>
staw ały</w>
po sił
by najmniej</w>
195 9</w>
tor ium</w>
ri um</w>
195 3</w>
wystar czy</w>
roz dziel
wie ków</w>
stwo rzenia</w>
P ło
przypomi na</w>
i ne
w tem</w>
T wo
Ri char
Ślą ska</w>
trow er
pre ten
Augu st</w>
wó z</w>
Pol skich</w>
st ając</w>
0 5</w>
sce na
rzek łem</w>
rze k</w>
uro czy
twór ca</w>
k wi</w>
dło ń</w>
s r
pa st
otwar cie</w>
mat ów</w>
ch os
or ien
szcz ąt
Tade usz</w>
A ch</w>
przeło mie</w>
Univer si
nic ami</w>
li k</w>
Por tu
Narodow ego</w>
9 9</w>
wspo mina
wiar ę</w>
li be
192 8</w>
li dze</w>
wy sła
po ły
ge o
fran ków</w>
ste l
roz dział</w>
obrę bie</w>
ni cj
kar ty</w>
oświad czył</w>
li byśmy</w>
codzien nie</w>
porówna niu</w>
pi j
oł ta
na pę
kwiat ów</w>
dro g
d owanie</w>
ci ś
wa t</w>
mili tar
o my
M łod
przej ść</w>
ga r</w>
ra dy
Sej m</w>
prag nął</w>
Ma cie
195 2</w>
utrzy mać</w>
od o
li e</w>
t ni</w>
pamię ta
w si
fun da
a c
J ego</w>
po raż
Wo je
ty cznym</w>
obec ny</w>
dob ie</w>
re kla
uli cę</w>
za grał</w>
bur gu</w>
s sa</w>
god ne</w>
g ą
boha ter
5 9</w>
śmie chem</w>
peł no
wro ga</w>
cze ć</w>
te goż</w>
n sa</w>
star szy</w>
de mon
we ł
grze ch</w>
ci as
Hist or
przekona ć</w>
wybor u</w>
polity czne</w>
D ę
u dziel
y z
m ał</w>
dow ym</w>
ob rac
męż em</w>
193 3</w>
d anym</w>
śni ad
i on</w>
dy scypli
Zie l
w stał</w>
łow a</w>
synagog a</w>
przyjm uje</w>
premie r</w>
maszy ny</w>
mon e
lu tym</w>
cere mo
id ąc</w>
st ałem</w>
sió d
R A
O N
ś ka</w>
pu su</w>
zdoby ła</w>
ws chodzie</w>
Pol skę</w>
koła j</w>
włas ność</w>
uzna ł</w>
t ując</w>
Ar chi
t ta</w>
S tre
sz tur
kon wen
A l</w>
żad nym</w>
guber na
ti s</w>
pracow ników</w>
cz ci</w>
ra cja</w>
ologi cznych</w>
ch an
S in
u sprawied
u siadł</w>
obie któw</w>
krót kim</w>
wyda nia</w>
st owarzy
towarzy stwa</w>
W .</w>
fa bu
dysku sji</w>
Konstan ty
wy powie
pro por
o szczę
za cie
klasz tor</w>
15 0</w>
znale źli</w>
li ło</w>
doj rz
praw ę</w>
wschod u</w>
Ci ty</w>
za sob
ty s</w>
k .</w>
wska za
po dzi
nic twie</w>
pa ro
zabi ć</w>
ros ła</w>
resz ta</w>
kry zy
st ego</w>
naj młod
cz nika</w>
C .</w>
wojsk owych</w>
W okul
włos ów</w>
usz ki</w>
ra ń
miej skie</w>
wy le
pi o
po jm
dysku sja</w>
u słyszał</w>
kow ało</w>
grom ad
go rzej</w>
dó br</w>
al ni</w>
u ko
ńczy cy</w>
l ną</w>
krzy ża
j ał
P S</w>
ż ne</w>
ost ro
kola na</w>
M aj
ł zami</w>
sz pie
przeby wał</w>
nie spokoj
g any</w>
cie pł
ha ń
aut ono
b uj
przesz ło</w>
czy ka</w>
ow ani</w>
g wi
z wier
to ż</w>
ogło sił</w>
f ut
natural nie</w>
rozpo czyna</w>
party zan
węd row
s la
osie m</w>
n kę</w>
konie czności</w>
amerykań ska</w>
K en
wy cię
przyjem ność</w>
oskar ż
o kazał</w>
kon trower
dob rych</w>
żu j</w>
związ ki</w>
tri um
stro j
bra my</w>
7 6</w>
książ ce</w>
zie mią</w>
ce niu</w>
O o
u koch
cyk lu</w>
zało gi</w>
U n
rozpoczę to</w>
od rzuc
człowie kowi</w>
mi ć</w>
za strze
Har ry</w>
wy raz
twa rze</w>
iz bie</w>
c kimi</w>
ni gdzie</w>
fi gu
d s.</w>
A K</w>
zach owania</w>
karie ry</w>
gospod y
Z u
8 6</w>
za kaz
wz ór</w>
mie l
K W
T ran
zaczę to</w>
przyjem ności</w>
druży na</w>
pła szczy
v i</w>
prob lem</w>
192 6</w>
wspom nienia</w>
na pi
do prowadz
gi o</w>
brzy d
no logi
du sze</w>
cz ących</w>
w tór
der u</w>
S A</w>
M .</w>
A ra
skrzy ż
dow s</w>
su d
i b
c owi</w>
wz gar
przy pu
ka na</w>
ce ch</w>
wó j
mow ała</w>
k ej</w>
k any</w>
in o
O bro
Ma ciu
D or
znaj ąc</w>
tre ść</w>
powro tu</w>
li nię</w>
dzisiejsz ego</w>
spra wia</w>
c not
st ry</w>
T ym</w>
S tro
zagranicz nych</w>
teri i</w>
re akcji</w>
pręd kości</w>
4 9</w>
nar ciar
sz pi
v el
wy nikiem</w>
le wo</w>
twar d
st rzę
ru r
zaczy na
zwycię stwa</w>
dz ka</w>
ci os
ta cja</w>
do stoj
do myś
sza m</w>
jedy na</w>
spy tał</w>
i dą</w>
aryst okra
spoty ka</w>
Pu charu</w>
nicz nym</w>
loka liz
ie s</w>
samolot y</w>
zasta nawi
to le
podej rz
sp rę
kardyna ł</w>
kon centra
k ane</w>
Gó ry</w>
wie dzi
sz ono</w>
sposob u</w>
rze cze</w>
ow skie</w>
woj ną</w>
szy i</w>
on g</w>
umy sł</w>
sied miu</w>
kapi tu
Warsza wskiego</w>
wy nika
ty czną</w>
wie rzy
obraz ów</w>
tele f
prze widy
in ą</w>
dłu gą</w>
cią ga</w>
Ł ó
po kład
od bior
obywate li</w>
nar ki</w>
ła bym</w>
przedmi otów</w>
post ol
mo mentu</w>
mu zeum</w>
widzi my</w>
spe cyfi
do szedł</w>
ć wier
obec nej</w>
k war
Komi sji</w>
wyda nie</w>
umy słu</w>
ukaza ła</w>
ró dzie
dal sze</w>
u lubi
co kolwiek</w>
Re cor
ś lep
rozpo czy
U S</w>
te l</w>
kobie tą</w>
bi li
podob nego</w>
nie cki</w>
su ch
opi nii</w>
prze jm
h en
zre aliz
stos owany</w>
osob ą</w>
st ro</w>
pie szcz
po ro
materi i</w>
d rę
pisa rza</w>
kilo metrów</w>
kar ę</w>
sce nie</w>
re ż
przeci ę
ro cznie</w>
po seł</w>
chę ci</w>
wspom nienie</w>
poło żył</w>
od szedł</w>
za miar</w>
z wia
nosi ły</w>
teor ia</w>
wy niki</w>
skut kiem</w>
homo seksu
wy nik
u moc
że ć</w>
doro sł
pozo sta
m ęd
drzwi ach</w>
chor y</w>
bie nie</w>
Łu ka
tro n</w>
sa memu</w>
lu b
ana liz
ta k
od dy
na tch
9 6</w>
zada nia</w>
7 8</w>
w cześnie</w>
myś lenia</w>
ów ce</w>
słowa ch</w>
O n</w>
niewątpli wie</w>
P A</w>
Je d
wybrze ża</w>
war szta
cią g</w>
nog ach</w>
poe ty</w>
nauczy ciel</w>
gra jący</w>
czy nienia</w>
reży ser
przedmi oty</w>
wy produ
l l</w>
rośli ny</w>
obowiąz ki</w>
f os
zbud owana</w>
p any</w>
Joh na</w>
wszel kiego</w>
wal kach</w>
la ta
ber ta</w>
D e</w>
umy słow
ch owa</w>
roz mowa</w>
preze s</w>
nie mi</w>
bro nić</w>
no cą</w>
zmusz ony</w>
u se</w>
try um
po rów
za dowol
w łą
ży ją</w>
wz ra
o szu
ni sko</w>
tr e</w>
par ti
chle b</w>
Ce zar
Bra zy
pamię tam</w>
ni owych</w>
jedy ne</w>
P oto
Gdań sku</w>
ode bra
ni s</w>
wra żenia</w>
c onych</w>
T ru
łat wiej</w>
kow ska</w>
z war
grun cie</w>
wi zja</w>
poczu cie</w>
sze ść
wyż sz
przy k
ę dy</w>
di um</w>
al ter
dal a</w>
wschod nim</w>
Y or
z jedno
st wu</w>
puł k</w>
pie czę
nie my</w>
nie sie</w>
mu s</w>
m. in</w>
ha sła</w>
kow skim</w>
run dzie</w>
chci ałbym</w>
był bym</w>
N ad
umiejęt ności</w>
k ują</w>
ci szy</w>
profe sora</w>
og ród</w>
ci ałem</w>
P R</w>
ch aty</w>
Sz wej
Ży dzi</w>
pod da
ie ra</w>
e d</w>
dzie ckiem</w>
do li
przy kro
men tami</w>
doty czy</w>
do state
usz em</w>
osob iście</w>
Bu łgar
spostrze gł</w>
fe rze</w>
z za</w>
słowa mi</w>
nia na</w>
należ ała</w>
stat us</w>
sez on</w>
ro t
nu me
Te ch
S t</w>
u względ
gmi n</w>
og niem</w>
francu skiego</w>
czte ro
M I</w>
j cie</w>
gi tarzy
0 9</w>
wie działem</w>
cy i</w>
uczestni czył</w>
na tar
prze bo
od sło
czar ną</w>
u wię
g y</w>
Mar ka</w>
wprowadz ono</w>
uli ca</w>
two rzyć</w>
sa teli
gdy byś</w>
Ber nar
0 6</w>
uważ any</w>
fol war
pięk nie</w>
świad e
Bie l
świadom ość</w>
oddział y
pod niosła</w>
L os</w>
prag nie</w>
ów ką</w>
zwie rzę</w>
y a
maz owie
właści wości</w>
pł ci</w>
biał ym</w>
Olimpi jskich</w>
F al
parla mentar
pozio mu</w>
chłop cy</w>
ch ust
Franci szek</w>
za mierz
ru bli</w>
ros n
m s</w>
ra mienia</w>
ow em</w>
T V</w>
pun kty</w>
najwyż szym</w>
młod ej</w>
in dziej</w>
chod ź
u licz
resz ty</w>
mia stach</w>
sil nik</w>
rosyj skiej</w>
mu zuł
a gre
s cen
ge o</w>
niez byt</w>
ku pić</w>
en cyklope
Ru mu
s chwy
nię ciem</w>
stan ęła</w>
ja j</w>
artyku łu</w>
wy cofa
na wiąza
re f
wy łą
tę go</w>
społe cznej</w>
glą dać</w>
M m</w>
Bi sku
lot ów</w>
lat y</w>
192 9</w>
sk rze
po działu</w>
obro nie</w>
ü h
bied ny</w>
bi na</w>
S kar
uzbro j
stawi ć</w>
l la</w>
stat u
niej szymi</w>
ch ału
zda rz
zawod nik</w>
bi ur
wy prawi
prakty cznie</w>
Pie choty</w>
M ot
wy nik</w>
Pan ny</w>
wyobra ź
ni ania</w>
na ti
Wę gier</w>
dwudzie stu</w>
roz pro
proble my</w>
god ności</w>
szczęśli wy</w>
pta ków</w>
8 8</w>
sze le
n ud
k lo
dz a
am bi
Ś wi
wią że</w>
u działem</w>
ra ły</w>
1 .</w>
w at
tr wała</w>
obowią zek</w>
man ów</w>
ch rz
u zasad
towarzy stwo</w>
studi ów</w>
przy niósł</w>
Mosk wie</w>
pi i</w>
ce do
stoli cą</w>
f ali</w>
P Z
Lu cja
t ką</w>
kwe sti
gwia zd
e wen
z wana</w>
mił ością</w>
źród łem</w>
z waż
men tach</w>
za brał</w>
w prowadził</w>
wy zy
wi nien</w>
to nie</w>
szere gu</w>
og ół</w>
kon fede
szlach ty</w>
sze ści
g rę</w>
P ani</w>
K ow
w kro
kar cz
cz ące</w>
st aj
prze szła</w>
N o</w>
w nie</w>
obie c
kolo r</w>
boha ter</w>
me cz</w>
krzy k</w>
kos mo
decy zję</w>
F C</w>
u czył</w>
pręd kość</w>
o p</w>
le cie</w>
ko chał</w>
9 2</w>
0 4</w>
Czę sto
ut ru
kore spon
wysp a</w>
posłu gi
po jem
ci sza</w>
zna nego</w>
użyt ku</w>
swo imi</w>
pił ka
ma je
Komite tu</w>
materi ału</w>
brytyj ski</w>
ob lę
zdol ność</w>
zi ony</w>
no t</w>
trze cim</w>
t ém</w>
przemy słu</w>
pułkow nik</w>
bi zan
w sta
artyku ły</w>
star ym</w>
row ie</w>
po dziwi
od por
Kat oli
j nie</w>
cz eni</w>
ś miała</w>
w nios
ty łku</w>
Bog u
sz tyw
eg ze
decy zji</w>
łe z</w>
zastos owanie</w>
usta wy</w>
h indu
G usta
ws pi
na raż
st łu
po żąd
czy wszy</w>
pó l</w>
wi zer
p taki</w>
Jaku ba</w>
zamieszki wało</w>
po za
sty ka</w>
bu s</w>
zna czne</w>
sze fa</w>
s owego</w>
zachod nim</w>
ka dłu
ch t</w>
arty sta</w>
K mi
de kre
Pol ską</w>
N na</w>
oficjal na</w>
rze czach</w>
fina łu</w>
czu łem</w>
bo i
J i
pojawi ły</w>
narodow ej</w>
zach ować</w>
m skiego</w>
h oł
pode jm
bie da
Sej mu</w>
Da nie
s aty
row i</w>
T aj
u bi
Z by
kon u</w>
CE ST</w>
sch e</w>
moder ni
gim nazjum</w>
pi w
pa ch
z obowią
wy stą
l na</w>
ha sło</w>
E m
śmie chu</w>
t éj</w>
S il
kom na
u wiel
dz w
Bi r
t onu</w>
c ym</w>
U l
właści ciel</w>
ucz niów</w>
A ni
v en</w>
tere nów</w>
Edwar d</w>
ru ch
Pił sud
0 3</w>
teat ru</w>
przy wró
wo dzą</w>
u k</w>
mężczy źni</w>
gnie wu</w>
dowie dzieć</w>
wyda rzeń</w>
syste maty
gałę zi</w>
ta cję</w>
łow ych</w>
M os
trzydzie ści</w>
t rzą
rod ą</w>
powy ż
f ale</w>
dywi zji</w>
man u
za r</w>
przy zwycza
ob cią
n nego</w>
prze ży
nog ę</w>
chor ąg
car a</w>
Szko ły</w>
wy rok</w>
wa sza</w>
m niema
dal szych</w>
ała bym</w>
świę tych</w>
zmieni ć</w>
za cję</w>
iz m</w>
Le gi
pi ę</w>
kilku nastu</w>
ce lar
sz czyć</w>
w skie</w>
ty cznie</w>
two jej</w>
pl any</w>
o .</w>
chos łowa
wojsk owy</w>
przedstawi cieli</w>
bi ała</w>
Wiel ka</w>
ak cep
pozi om
e wangeli
dotar ł</w>
su per
g no
Bo żej</w>
za siad
pomy sł</w>
po została</w>
iz mu</w>
O gó
F ra
zna nym</w>
materi ał</w>
kol or
u bó
owo c
ar u</w>
G ab
zaczę ło</w>
kandy dat
192 3</w>
0 2</w>
rycer z</w>
obc ych</w>
niebezpiecze ństwo</w>
ni szcz
marszał ek</w>
uzysk ać</w>
pocią g</w>
jsz e</w>
na stąpiło</w>
193 2</w>
mor skich</w>
m owanie</w>
cmenta rzu</w>
7 7</w>
pi on
n ować</w>
do koń
z likwi
x a</w>
kwad ra
sze ń</w>
modlit wy</w>
8 1</w>
na ro
występ ujący</w>
rzą dzie</w>
napa st
la sów</w>
zatru dni
ala kty
Am er
zach owanie</w>
wy ci
rozmai tych</w>
ra dę</w>
le cz
chci ało</w>
owi ce</w>
I ra
u sun
zna ki</w>
pa le
a byś</w>
s se</w>
al u
Ro y
prze jął</w>
klu bie</w>
pat rzyła</w>
gł owa
północ ny</w>
odległ ość</w>
PR L</w>
z no
nie śli</w>
sty na</w>
bada w
ur e</w>
ty fika
dział ał</w>
tu m</w>
ty ł</w>
o i
nie bo
mag ist
istnie ć</w>
ie nie</w>
gwa ran
for tu
7 ,
wy su
nie widzi
drzwi ami</w>
bie r
Ch or
trze ciego</w>
ojczyz ny</w>
od biera
9 8</w>
rene san
ko ni
C D</w>
0 7</w>
ó s
twór cy</w>
tur niej</w>
8 2</w>
sie ro
budow any</w>
roz legł
licz bie</w>
dod ała</w>
wido czne</w>
pokona ł</w>
współczes nych</w>
wi cza</w>
pozy tyw
po móc</w>
og o
do min
p s</w>
k er</w>
Zygmun t</w>
zaję ła</w>
uży ciu</w>
ni szczy
mil czenie</w>
i an</w>
K lu
cho t</w>
zespo łem</w>
m and
kawał ek</w>
sprawied liwość</w>
si ar
wo ły
ra sy</w>
Jagiel lo
wydaw ał</w>
P owie
ro kiem</w>
nicz na</w>
u g
mi ach</w>
S mi
południ owy</w>
najważ niejszych</w>
kwest ii</w>
su ł
kro ki</w>
ist e</w>
s chy
row e</w>
król ów</w>
si le</w>
prze łę
prze bi
czy sto</w>
G en
n ą
6 00</w>
ko za
czar nej</w>
cz ci
c noty</w>
ze chce</w>
tempera tury</w>
je cie</w>
da g
czy nią</w>
bl ok
ży wo
d ba
for mu
e gip
d no</w>
błogos ła
sz ów</w>
ogro dzie</w>
dz kich</w>
uro dzi
przechow y
gł odu</w>
ewen tu
S obie
é ć</w>
og i</w>
niezależ nie</w>
ba zie</w>
Peter sbur
a kt</w>
za lud
szy ły</w>
szy ło</w>
si u</w>
cier pienia</w>
w chodzą</w>
je zu
da t</w>
pły tę</w>
wydaw ało</w>
miej skich</w>
k cję</w>
In dii</w>
wybor y</w>
sztu ce</w>
sk an
rzeź bi
nabo że
czy ński</w>
czo ła</w>
Prze d
zer wał</w>
g ma
Hol andii</w>
wie cznie</w>
odpar ła</w>
O pen</w>
ni onego</w>
To ma
sze wski</w>
peł nić</w>
un g</w>
u czę
ri s</w>
d róg</w>
księż nej</w>
nia nie</w>
bó g</w>
Li te
a ku
Ra f
Frydery ka</w>
praw ą</w>
mie cz</w>
wyda rzenia</w>
są siedz
sk ą
pad ła</w>
otrzy my
pięk ności</w>
dowie dział</w>
Juli an</w>
rami onami</w>
z lokaliz
na k</w>
py ta</w>
mi ony</w>
zare je
słow y</w>
szczy tu</w>
nie śmiertel
A la
wyso kiej</w>
one mu</w>
Ry szar
skom pli
ser cem</w>
row ol
przy tu
po do
o progra
sprzeda ży</w>
F la
szko łę</w>
chło p</w>
że la
związa na</w>
y s</w>
mod elu</w>
Ros yj
wej ść</w>
spo dziew
pod porząd
nazy wany</w>
Maz owie
wy chodzi</w>
sekre tarz</w>
pie śń</w>
per a</w>
ry t
te ro
księży c</w>
ba n</w>
Rober ta</w>
9 7</w>
w cie
towarzy szy</w>
p to
pokaza ć</w>
n m</w>
roz róż
gl ar
an s</w>
Witol d</w>
po ka
opuści ć</w>
Li gi</w>
opi sy
ati on</w>
Wy daw
ud aje</w>
ma j</w>
wywo dzi</w>
pozy cje</w>
I l
na step
nieustan nie</w>
ne i
190 5</w>
kontro li</w>
zł oto</w>
two ich</w>
prowa dzili</w>
cz ały</w>
arty stów</w>
Je h
u kra
li czył</w>
cer kiew</w>
amerykań skie</w>
zakoń czyła</w>
osob ę</w>
N y
za klę
lep sze</w>
192 7</w>
zadebiut ował</w>
wyż szych</w>
wi dzieli</w>
st wa
przyzna ć</w>
e ste
wsz ak</w>
wa sze</w>
sł ał</w>
substan cji</w>
specja lnie</w>
ba z
przyjaź ń</w>
mo gi
ki na</w>
B lu
zm niejsz
u czy</w>
ły mi</w>
w le
stan ów</w>
pe la
n nym</w>
Lit wy</w>
znajdow ały</w>
intele ktu
cudzo ziem
wszel ką</w>
wst rzy
p aj
że byś</w>
spę dził</w>
leci ał</w>
bo ju</w>
wład ca</w>
tow ali</w>
poję ć</w>
oś rodek</w>
an ek</w>
Sło ńca</w>
G ry
F rie
wa ha
pod bi
Ukrai nie</w>
wal czyć</w>
podej rze
po chwy
wskaz uje</w>
pra cą</w>
or kie
et c</w>
ta kty
sz czył</w>
syste mów</w>
polity cznej</w>
9 4</w>
ź re
met ra</w>
B o</w>
wyciąg nął</w>
s ady</w>
komór ki</w>
dowo dził</w>
8 7</w>
nie dziel
zdecy dował</w>
ry by</w>
przedsię wzię
pojawi ła</w>
nieszczę s
tra ge
szero kie</w>
co m
materi ałów</w>
P O
prez bi
kra je</w>
Wi sły</w>
ne gat
l ów</w>
k tach</w>
dzie ćmi</w>
bi z
wol ą</w>
szlache t
gł em</w>
g on
Indi ach</w>
sz t
spoj rzenia</w>
ości ami</w>
bi le
Za gł
wy ko
pal ce</w>
M P</w>
na aa</w>
G dy</w>
spowod owało</w>
ot ą</w>
L au
la m</w>
do liny</w>
ktor ów</w>
zrozu miał</w>
najlep szym</w>
ie nia</w>
ry ba
su kie
b ery
wyja śni
Świat owej</w>
strze lił</w>
g on</w>
Mar y</w>
8 4</w>
Pru s</w>
sią ść</w>
ran nych</w>
przy bra
dzi sz</w>
ce ń</w>
Pa ul</w>
śnie gu</w>
ran u</w>
do cie
b ny</w>
K W</w>
sta rzec</w>
poz ór</w>
Kul tury</w>
państ wie</w>
znaj ę</w>
hy dro
od mawi
suk ni</w>
e x
do prawdy</w>
ając o</w>
ele gan
w ery
urzą dzenia</w>
rz om</w>
let niego</w>
193 1</w>
M oj
śwież o</w>
zam k
czar ow
st rem</w>
oże nił</w>
krót kie</w>
bog a</w>
ża r</w>
wy dać</w>
pozwo lił</w>
Mistrzost wach</w>
7 3</w>
za opat
wiel kość</w>
sko rzy
sa dz
na de</w>
do ktry
tajem nicy</w>
róż nica</w>
l da</w>
eli mina
więzie niu</w>
posta cią</w>
namięt ności</w>
6 ,
l ał</w>
d ge</w>
sła wy</w>
sty mi</w>
rad ością</w>
i k</w>
budy nków</w>
M od
wol ny</w>
stwo rzenie</w>
G ri
zjawi sk</w>
powod ów</w>
mia ć</w>
f aj
tech niki</w>
na si</w>
re zyden
mężczyz ny</w>
le sa</w>
hod ow
piersi ach</w>
zd ów</w>
wyj ścia</w>
współ czu
P ała
pla c</w>
pie niu</w>
pro kura
o ku</w>
bla sk</w>
Universi ty</w>
o pracow
bor u</w>
7 4</w>
ry sun
pos ęp
u j</w>
przedmi otu</w>
opo dal</w>
ał ego</w>
z miesz
przyj ść</w>
po sy
obo zie</w>
ga z
at rak
T an
jezu i
bro nią</w>
N u
7 1</w>
ką t</w>
kla sie</w>
u miar
pol scy</w>
dra pie
zalud nienia</w>
wi no</w>
publi cy
prze ja
łow e</w>
tygod nie</w>
prze kład
zmar t
ze r</w>
l ie
ż ki</w>
wska zy
za ła
mistrzost wach</w>
prze gląd
kana dyj
alter naty
W en
Na rodów</w>
ze j
unie możli
gru pą</w>
pod le
bi ny</w>
Zygmun ta</w>
0 8</w>
J os
F ar
zapom niał</w>
publi cznej</w>
n Aa</w>
leka rza</w>
ka m</w>
Pola cy</w>
ry wa</w>
Sal o
tur ą</w>
strasz nie</w>
two rzenie</w>
pięk nej</w>
19 15</w>
ra l</w>
wyd ało</w>
m niejszych</w>
konie czność</w>
chwi le</w>
tam ten</w>
ob er
k łę
Or gani
wie ś
obszar y</w>
wy ru
bawi ć</w>
z mianę</w>
t kwi
najwyż szy</w>
is e</w>
pod niesi
częst ot
be n</w>
Re gi
przekona nia</w>
Szwajcar ii</w>
J er
wy bór</w>
ti o</w>
ros ły</w>
n ob
Mu zy
H ab
podob ną</w>
mi r</w>
mie rza</w>
dzier ża
Gu er
ż na</w>
m ających</w>
li stu</w>
che ł
le ń</w>
wyso kich</w>
nicz ną</w>
i sk
dźwi g
daw ny</w>
obie t
na wie
gó rach</w>
za sło
sz kę</w>
A pol
spe kty
rzy łem</w>
li ę</w>
mógł bym</w>
kan cle
Yo u</w>
wy ma
wa l</w>
history k</w>
gitar a</w>
pi oru
Bar bar
znalaz ły</w>
wy ło
Recor ds</w>
C er
niemie cka</w>
następ nym</w>
d ano</w>
O de
F ron
książ ąt</w>
tele dy
ręko ma</w>
par tia</w>
od czy
je szcze
ze ń</w>
prze pra
leż ała</w>
do le</w>
usłu gi</w>
potrze b</w>
nieszczę ś
za pra
poprzed nio</w>
doj ść</w>
19 00</w>
piosen kar
mi r
katoli ckim</w>
f in
e u
do stęp</w>
wz dy
w róż
prowadz ą</w>
Ar ta
wnios ek</w>
ra li</w>
mu m</w>
mow ym</w>
czy nił</w>
zwy cz
obec nych</w>
odwa gi</w>
jakich ś</w>
gra ni
si łami</w>
pro ste</w>
dia le
urzęd u</w>
społe czności</w>
samo chód</w>
koncer t</w>
Egip tu</w>
nie wielkie</w>
mło dzi</w>
her b</w>
dłu giej</w>
wy maga
okie n</w>
mówi sz</w>
macie rzy
godzi na</w>
D is
zespo le</w>
wy nosiła</w>
rze niach</w>
S po
w trą
spoj rzała</w>
wiat ru</w>
w rz
pi ja
śla d</w>
szu ka</w>
probo szcz</w>
cza ro
wysp ę</w>
sz ona</w>
W hi
R ot
nie mniej</w>
wrac ając</w>
rozwi ja
różno rod
połow ę</w>
mal arz</w>
cz ając</w>
uczy ni
słusz ność</w>
wej ścia</w>
rzą dek</w>
gra n
A ry
woj .</w>
u pamięt
nicz nie</w>
korespon den
Pucha r</w>
O N</w>
ty zmu</w>
m ber
cu d
wie cze
sub tel
n uje</w>
Win dows</w>
3 .
pi ose
h r
jedno li
ele ment</w>
v al</w>
s I
powod em</w>
nie jako</w>
następ nych</w>
Wal de
A ri
pos ła
k ł
szed łszy</w>
st ką</w>
póź niejszych</w>
ogrom ny</w>
ności ami</w>
aktu alnie</w>
Chi nach</w>
mo ment</w>
wrac ał</w>
te mi</w>
chłop ów</w>
Z ato
ry nek</w>
c ko
sie nie</w>
nar ko
kilka dziesiąt</w>
history cznych</w>
Ja gieł
spoj rzeniem</w>
pisa nie</w>
Du cha</w>
litera turze</w>
in we
ba ron</w>
K rze
społe czne</w>
korzy ści</w>
słysz ała</w>
stop ni</w>
me cze</w>
mat ce</w>
z łow
wy gląd</w>
Hi sz
przypad kiem</w>
os ada</w>
ob ni
ał ym</w>
V in
G ie
śmie ch</w>
staran nie</w>
rzuc ając</w>
rodzi nę</w>
wy ła
nie chaj</w>
wy se
frag ment</w>
bla sku</w>
Try bu
9 3</w>
z bad
wia nia</w>
od gry
obó z</w>
nie zawod
gra nicą</w>
dod ać</w>
z godzi
two im</w>
Bole sława</w>
n na</w>
sza nia</w>
sol wen
z ma
ź nie
konserw aty
pokole nia</w>
wi ch
my t</w>
bie l
so rem</w>
mieszka nie</w>
k roku</w>
Sta ro
obwod u</w>
mog łaby</w>
będ ące</w>
row ej</w>
mistrzost wo</w>
ja sk
Po ła
umożli wia</w>
n nie</w>
kow ali</w>
i dź</w>
pój ść</w>
ką cie</w>
wró ci</w>
szczę ściem</w>
skar b
m ery
angiel skiego</w>
sto py</w>
odpowie dzieć</w>
nios ło</w>
z gra
rod em</w>
popular ność</w>
pi ła</w>
osie dla</w>
od aw
wyobra źni</w>
u dostęp
ty k</w>
dział ać</w>
Instytu tu</w>
najwyż ej</w>
mał o
in wa
de szcz</w>
sk lepie
pł k</w>
i ło</w>
zespo łów</w>
gor z</w>
Par ku</w>
stwo rzyć</w>
ist niała</w>
e kra
Kon stytu
największ a</w>
cu s</w>
PA N</w>
rod ku</w>
pr owi
od woł
bie j</w>
8 9</w>
un kiem</w>
ko szu
intere sow
był ego</w>
s mar
j ar
dow ie</w>
okrą gł
C re
ona le</w>
metod a</w>
sk ał
Wilhel m</w>
G os
znacz ną</w>
pyta ł</w>
pro sty</w>
mer y</w>
zdję cia</w>
szczy cie</w>
ka rabin
g owy</w>
uży wać</w>
pocz ąwszy</w>
so li</w>
musi ało</w>
inf obo
her b
noś lą
artyle rii</w>
y wał</w>
rz ona</w>
ral nej</w>
Mi kołaj</w>
wio ski</w>
unik nąć</w>
uli ce</w>
stawi a</w>
przej ście</w>
potrzeb uje</w>
pier ś</w>
ge s</w>
dob rowol
ści anie</w>
ńczy k</w>
rzuc ał</w>
po sie
ni owego</w>
ja kości</w>
ch ra
wi ru
określe nia</w>
a cz
Ant oni</w>
A gnie
ży we</w>
w stą
ał ej</w>
cał ych</w>
zdaw ała</w>
sie ni</w>
osob ie</w>
dz kie</w>
a fry
E ri
wier nych</w>
wi ki</w>
trzym ając</w>
te t</w>
prze stał</w>
h u</w>
b ał</w>
Fran cja</w>
t kan
otrzym uje</w>
wo m</w>
pozo stać</w>
od działu</w>
głów na</w>
wojsk owej</w>
naj now
wygląd ał</w>
tr wania</w>
syste mie</w>
cz on
Wło dzi
Jezu s</w>
19 12</w>
wy twor
bud dy
osie dle</w>
er y</w>
piose nek</w>
gospodar z</w>
dzie le</w>
ba y</w>
z ru
u łoż
za si
rosyj skiego</w>
ko ali
kilka krotnie</w>
korzy ść</w>
i ę
z robi</w>
am e</w>
Ko za
zaję cia</w>
sto ją</w>
do rad
Ne w
wie dzieli</w>
Ma c
wewnętrz nych</w>
ta r</w>
rodz aje</w>
Ja mes</w>
wło ski</w>
um rzeć</w>
u przej
P lan
prawdzi wy</w>
pojawi ają</w>
mniejsz a</w>
gł owi
pły cie</w>
now ski</w>
zost aną</w>
sła wę</w>
bro nił</w>
E mi
wszela ko</w>
lek ce
bła g
Pozna ń</w>
wo ła</w>
Gó ra</w>
o ka
na f
lot y</w>
stat ków</w>
na du
der a</w>
Wojcie ch</w>
wy bud
t owa
sz ny</w>
nauczy ciel
jsz y</w>
dzien nika
u bo
gorą cz
E pi
przypom niał</w>
ra mieniu</w>
nię ciu</w>
mur u</w>
A R
tek stów</w>
proce sie</w>
Te od
sa ć</w>
od rzu
o hy
wiar a</w>
ro gu</w>
di ę</w>
symbo l</w>
ch mur
Bez pie
wsty d</w>
karie rze</w>
bu ł</w>
Ki j
zar ę
w ciąg
per spekty
od były</w>
dal szym</w>
chod ź</w>
y b
robot ników</w>
Fili p</w>
A kwi
osiąg nął</w>
dowód cą</w>
a mat
Ch in</w>
zabi ł</w>
przej ścia</w>
b rzę
Pu bli
Bog iem</w>
A bra
olbrzy mie</w>
hote lu</w>
po rze</w>
na tu</w>
kapelu sz</w>
da ma</w>
prakty ce</w>
8 00</w>
u par
boga c
przy spie
ob rzy
gor ąco</w>
ż dy</w>
y er</w>
efe kt</w>
obszar u</w>
du sz</w>
Mo ra
jeź dź
bi n</w>
Ka te
wa ń</w>
stwier dził</w>
przygot owy
lar z</w>
Koś ciele</w>
Kana dy</w>
Cze ch</w>
środ kowej</w>
Bole sław</w>
trze cia</w>
e wa
do kto
ciem ne</w>
mi ną</w>
K in
Mon t
uży wana</w>
pochow any</w>
od nosi</w>
nie spodzie
ro la</w>
opar ty</w>
myśl ąc</w>
kapli cy</w>
administra cji</w>
star ą</w>
poglą dy</w>
nie ni</w>
kieru nek</w>
u dowod
ce le</w>
bior ą</w>
Mic kiewicza</w>
za twier
lau re
ak cen
wzgó rza</w>
ucie czki</w>
nin g</w>
S .
właści cielem</w>
ś re
uro dziła</w>
t ku</w>
skoń czył</w>
zda rzyło</w>
n kiem</w>
k ół
e mo
czy sty</w>
uprze jm
ucie kł</w>
S at
wykona nia</w>
ut h</w>
akade mi
nie jsi</w>
północ nym</w>
p ali</w>
ko menta
ab solwen
S om
stu dyj
kształ c
Ste f
L at
ła w</w>
roz ej
pi ony</w>
pięk nych</w>
dz ący</w>
ni orów</w>
musi sz</w>
s jach</w>
francu skich</w>
zaj ąć</w>
two ją</w>
uważ ają</w>
robi ą</w>
pis ane</w>
su s</w>
o powiedział</w>
kre dy
kontra kt</w>
kom bi
Izra ela</w>
woła ć</w>
trzy my
g r
na stąpił</w>
ż nej</w>
wzię li</w>
wywiad u</w>
słod y
róż nic
gra cz</w>
fa be
rych ło</w>
obie kt</w>
ba g
rozu mieć</w>
wysł ał</w>
od a</w>
z en
większ ym</w>
skaz any</w>
c tion</w>
wie rzy</w>
ta le
kana ł</w>
Ma ksy
Ange les</w>
szy der
pia sku</w>
dło nie</w>
V ille
ś lub</w>
na der</w>
jako ż</w>
fot ografi
dot knię
D al
g un
ń sku</w>
u czyć</w>
progra mie</w>
p h</w>
wrac ać</w>
ty zm</w>
cen i</w>
bu tel
włas nością</w>
fa ra
an ta</w>
Igrzy skach</w>
tere nu</w>
czar na</w>
ce s</w>
specja liz
i u</w>
Pa ństwa</w>
ka mie
g ość</w>
wy prze
sza ch
połącz one</w>
chwi lami</w>
an te
Ś ródzie
one mi</w>
ka len
N nie</w>
zespo ły</w>
wyso kim</w>
iz ra
za d
rozmai te</w>
z n
me czów</w>
de rem</w>
de ko
c t</w>
t knię
plane ty</w>
kol oru</w>
wy naj
szla k</w>
ostroż nie</w>
for t</w>
S praw</w>
Ko ro
19 16</w>
za ka
technolog ii</w>
przewodnicz ący</w>
mur ów</w>
na rze
na kry
klu cz</w>
Pa u
pod pisał</w>
księży ca</w>
gi ę
gad a</w>
fa zie</w>
re n</w>
Krzy ża</w>
le i</w>
by wają</w>
N ati
wy k
roz pad
pew ność</w>
los u</w>
liza cja</w>
ku pił</w>
M ó
Boż ego</w>
negat yw
na w
let nia</w>
bo mb
głęb okie</w>
dźwię ku</w>
dodat ku</w>
d ale</w>
B ol
podob nym</w>
pla c
ch owie</w>
K y
zama chu</w>
uważ ać</w>
gro dy</w>
Z wiązek</w>
zało żenia</w>
ve s</w>
tele wizji</w>
społecze ństwo</w>
pozy cja</w>
zapa ch</w>
powoł any</w>
a te
o pol
n kach</w>
śmie jąc</w>
a pli
ne rem</w>
i zo
to ż
pod łu
kolej owej</w>
de o</w>
ci cha</w>
roz mowie</w>
ni onym</w>
katoli cka</w>
s l
mar a</w>
cza m</w>
K .</w>
wy ży
p rzę
bu ło</w>
ani żeli</w>
zasad a</w>
wy łącz
rozwiąza nia</w>
v al
H om
Grze gorz</w>
ład nie</w>
pa r</w>
ne uro
a ń</w>
re t</w>
prze pa
S zu
K la
S ak
a pe
warun kiem</w>
i ły</w>
bur ga</w>
Najświęt szej</w>
nie wie
Bo skiej</w>
wyż szej</w>
p ka</w>
los y</w>
g ród</w>
edu ka
W i</w>
J ęd
regi onal
mi ch</w>
cie lami</w>
w nych</w>
poli cj
waż nym</w>
powierzch nia</w>
niemie cką</w>
cz ący</w>
teri um</w>
terro ry
po piera
musi ały</w>
służ bie</w>
specjal ne</w>
ob oj
ne go
su bie</w>
mod li
ka t
formal nie</w>
ch wa
pew ności</w>
ci k</w>
K M</w>
re ak
Afry ce</w>
za żąd
za ta
waż ną</w>
nad aje</w>
biał ego</w>
S ob
Mag dale
należ ący</w>
G ło
ż dż
wojsk ami</w>
swobod nie</w>
da nia</w>
rze kę</w>
nog ą</w>
for mą</w>
cięż ki</w>
ba ra
B C</w>
za sł
wojsk owe</w>
powi ę
pan ował</w>
natural ne</w>
W el
fa l</w>
Ja c
ń skimi</w>
zgod y</w>
un ków</w>
pie ch
o piera</w>
nicz ka</w>
ce niem</w>
v ar
kolej nym</w>
z mi
któ r</w>
P ła
dru dzy</w>
T en
u kładzie</w>
me lan
ro w</w>
b la</w>
7 9</w>
wy ba
ut r
u chy
kate dry</w>
f ę</w>
dwie ma</w>
ch ł
łe b</w>
so cj
pój dę</w>
dz o</w>
Ir landii</w>
cha nie</w>
N ob
Ja cek</w>
sza nie</w>
od niósł</w>
lubi ę</w>
lep szy</w>
S oli
sa kra
s nad
rze niami</w>
jeżd ża</w>
Wa cła
wy świet
mó wienia</w>
kr o</w>
ciot ka</w>
Le cz</w>
u podob
two rzył</w>
południ owym</w>
pi lnie</w>
ka mienie</w>
b ka</w>
Bene dy
przy należ
chłop ców</w>
pragnie nie</w>
uśmiech nął</w>
star szych</w>
rozu m
for d</w>
założy ciel</w>
zawod y</w>
wprowa dzenie</w>
papie ro
o pór</w>
dz ała</w>
Star ego</w>
mat a</w>
gwiaz da</w>
c ać</w>
Hab sbur
wpły wy</w>
pój dzie</w>
przy jechał</w>
po ran
kolo nii</w>
po bi
na cjona
lu bel
głu pi</w>
au stra
n ce</w>
m any</w>
Joh an
Jaku b</w>
ok nie</w>
kar a</w>
przypomi naj
boha tera</w>
st or
sie ę</w>
kwi n
młod ym</w>
dostęp ne</w>
Willi am</w>
U u</w>
po kazał</w>
kil ko
A ut
za stąpił</w>
v o</w>
ja j
fot ogra
cz ół
Che ł
zawod ników</w>
wybra ł</w>
os ady</w>
nię to</w>
dzie liśmy</w>
myśli sz</w>
li ca</w>
k w
S ier
wyż sze</w>
led wo</w>
g owych</w>
boha terów</w>
chor ych</w>
P on
B .</w>
Świę tej</w>
Słowa cji</w>
uzna je</w>
szero kości</w>
stanowi ły</w>
sie mę</w>
Wo jen
о в
sI ię</w>
pow tór
odkry ł</w>
infobo x</w>
trze cie</w>
natu rze</w>
T u</w>
H .</w>
ż ąc</w>
służ ący</w>
sa n</w>
proble mów</w>
one s</w>
króle stwa</w>
e ty
za tytułow
trze ma</w>
strasz ne</w>
patry wał</w>
eg za
Kmi ci
świad czy</w>
wo na</w>
powsta niu</w>
dyre ktora</w>
ści ach</w>
strate gi
sk ru
u nika
oryz on
okoli ce</w>
o póź
Ma u
z ło</w>
dzie łem</w>
dowi ad
ob chodzi</w>
papier u</w>
ch at
a się</w>
wy kaz
s p</w>
patri ar
afry kań
Tade usza</w>
Mad ry
tam tejsz
t ist
sę dzia</w>
polity ka</w>
pamię tać</w>
go dzi</w>
ad mi
a aa</w>
róż nice</w>
mo ra
budy nki</w>
aut orów</w>
Bezpie czeństwa</w>
komunika cji</w>
za począt
wiel kimi</w>
t any</w>
ta rze</w>
po chle
do mem</w>
Z groma
Arta gna
opis uje</w>
chor ą
przyję cia</w>
ko li
czar nym</w>
u kształ
teat r</w>
re na</w>
więź niów</w>
na rodów</w>
c ław
Po lite
g r.</w>
świę to</w>
śpie w</w>
wy razu</w>
po gląd</w>
aresz towany</w>
wszel kiej</w>
k owa
lud ów</w>
d się</w>
wie ni</w>
przypad ek</w>
l no
D on
za krę
olimpi jskich</w>
znalaz łem</w>
kolej owa</w>
dotycz ących</w>
cze mu
ze psu
róż ni</w>
księ ciem</w>
k sa
ła skę</w>
przypad kach</w>
pięć dziesiąt</w>
W z
t s
sekre tarza</w>
przebie ga</w>
zim no</w>
nu ie</w>
dziw ny</w>
za sko
utworz ono</w>
wschod nich</w>
sta cjon
rezy gna
Ma te
A rab
uważ am</w>
stanow czo</w>
ru mie
przy byli</w>
pre cy
zwró cić</w>
opie kę</w>
zi ono</w>
wy dziel
ule ga</w>
f ala</w>
de kana
ucie c</w>
regu ły</w>
oświet l
wy pu
ra dos
bra li</w>
wy mawi
pro ro
m ad
S się</w>
Mał gorz
znajom ych</w>
szy li</w>
prowadz one</w>
oko l
następ ne</w>
maty czne</w>
z bieg
uży cia</w>
t ce</w>
kościo ły</w>
Pol o
sz nu
rosyj skich</w>
czy mi</w>
u cho</w>
of en
oby cz
kazy wać</w>
i ach</w>
ż nych</w>
odzy ska
drob nych</w>
C ra
ry b</w>
roz wiąz
pro si</w>
ka j
ga na</w>
za in
dziwi ł
wszel ki</w>
woje n</w>
ro śnie</w>
ist ota</w>
sztu kę</w>
hie rar
nazy wał</w>
dzisiejsz ej</w>
Ar ty
wej ście</w>
so ię</w>
ru chów</w>
lep szego</w>
rozpa cz
bar wach</w>
wpły wu</w>
cy ta
o dzi
dyna n
sło ńcu</w>
sz onych</w>
sie nę</w>
go dz
czyst ej</w>
Portu ga
psy cho
młodzie niec</w>
królew skiej</w>
er ów</w>
specjal nych</w>
oglą dać</w>
nie bi
g .</w>
P hi
ty fi
y ł</w>
rodz ajów</w>
prze łoż
ow ską</w>
zach ował</w>
sil nika</w>
najważ niejsze</w>
ż ny</w>
trud em</w>
grom ady</w>
tar i
pośred nictwem</w>
od poczy
astro no
C el
ja dal
ar mię</w>
Polite ch
zostawi ł</w>
znajd ująca</w>
rodzi ną</w>
d ały</w>
19 10</w>
twier dzi</w>
rozkaz u</w>
ni ąc</w>
Woł od
row ał</w>
podobie ństwo</w>
intere s</w>
Jeh owy</w>
tę t
przedstawi ł</w>
kom panii</w>
tym czas
t é
rze ni</w>
roz puszcz
pie lę
no ie</w>
li ch
Moj że
2 .</w>
prze zna
pro mi
T y</w>
słu gi</w>
nie je</w>
ewa ku
egze ku
czwar ty</w>
wer sję</w>
prze sta
powiad ają</w>
flot y</w>
Z łot
z rze
pun kcie</w>
pie kie
niepodległ ości</w>
księ gi</w>
arty sty</w>
szko da</w>
nię tą</w>
maszy n</w>
do słow
a cji</w>
sfor mu
pu sty</w>
na si
męd r
Iza be
9 1</w>
or sza
Davi d</w>
zmy słow
nad mier
fa ktu</w>
dziad ek</w>
biał ej</w>
tr wały</w>
g rzym
debiut an
stoli ca</w>
izra el
Za konu</w>
P h
za chodzi</w>
publi cznych</w>
mow ane</w>
je że
ała ś</w>
pró bę</w>
krzy ża</w>
ja szcze</w>
dzie jów</w>
arcy biskup</w>
tz n.</w>
póź niejszym</w>
pi ór
Je an</w>
wierz ę</w>
roz m
man na</w>
zwrac ając</w>
trakta t</w>
stra ży</w>
re lacji</w>
cięż kich</w>
wa szej</w>
niepo kój</w>
dla ń</w>
zdo ła</w>
za ży
przysz ły</w>
po lo
nor we
kie dym</w>
ś i
znajom ości</w>
za bie
pow ó
owa w
cz kach</w>
ch mury</w>
br wi</w>
ogrom ną</w>
Napole ona</w>
Roy al</w>
O d</w>
poko r
an kę</w>
S am</w>
ów czas</w>
row ych</w>
m ski</w>
instytu cji</w>
ar t</w>
T im
lot niczy</w>
zg ry
woje woda</w>
su ię</w>
wst rzym
rozpo rzą
n ko</w>
jeszcze ż</w>
dział ów</w>
K ost
Fer dynan
powtó rzył</w>
muzy czny</w>
rze mi
rozu miał</w>
cie nie</w>
s pój
religi jnych</w>
powiad am</w>
epo ce</w>
wybor ów</w>
od wrócił</w>
Li twie</w>
śnie g</w>
zamknię te</w>
dystry bu
daw ało</w>
wo zu</w>
sza wszy</w>
przyjacie lu</w>
nos a</w>
kar e
par k</w>
os ą
dowódz two</w>
żela za</w>
skute cznie</w>
l on</w>
h oryzon
sła bo</w>
stanowi ć</w>
p sów</w>
San cho</w>
P K
Czerw onej</w>
ż alu</w>
re du
prawdopodob ie
re mon
odpowiad ał</w>
wie ści</w>
prze wie
powię ksz
inter wen
F u
współ pracow
poma rań
oc al
in spe
du szą</w>
M ło
M y</w>
tro p
języ ki</w>
zaba wy</w>
poś rodku</w>
po u
nau kowe</w>
bar ba
u kazuje</w>
t ałem</w>
spokoj ny</w>
oś mie
nieszczę ścia</w>
O fi
c al
R .</w>
uży ć</w>
skie r
czerw onym</w>
8 ,
war gi</w>
powi ęk
rej on</w>
et n</w>
ó zł</w>
wy trzym
powin ni</w>
bu dzi</w>
od naj
od miany</w>
maty cznych</w>
I P</w>
ziel one</w>
z ka</w>
jesie nią</w>
wi dowi
prze ć</w>
prze kaza
ö r
sun ęła</w>
ni oną</w>
nad ał</w>
dziw nego</w>
dziewczy nę</w>
P .</w>
at ry
z mia
tram waj
ro le</w>
przy wiąz
fabry ki</w>
en tu
złoż one</w>
za brać</w>
sh i</w>
li tur
ści an</w>
tu ne
qu i
potę gi</w>
musi ałem</w>
Pri x</w>
Maciu ś</w>
u myślnie</w>
sposob ności</w>
po ty
no szenia</w>
gospodar ki</w>
li stę</w>
cz uj
cieka we</w>
roz kład
filozo f</w>
Marci n</w>
ści g
oc ali
l owej</w>
anali zy</w>
sk ając</w>
kobie r
doświad czenie</w>
ogó lnie</w>
da chu</w>
lu bie
dysk re
sze s
rzym skiego</w>
pisto le
Wy działu</w>
. 000</w>
z dy
skrzy p
ol u</w>
cięż kiej</w>
Micha el</w>
zrozu mienia</w>
zda rza</w>
u rze</w>
sposob y</w>
rozwiąza nie</w>
z nę</w>
wer sje</w>
podstaw owych</w>
bo r</w>
Pale sty
do linie</w>
Mon te</w>
Ar genty
Ślą sku</w>
t na
służ ba</w>
podstaw ą</w>
frag menty</w>
Uniwersyte t</w>
wie ń</w>
staw ało</w>
podsta wy</w>
papie r</w>
f era</w>
po ł
m era</w>
dziesię cio
dre w
R en
si a
s owym</w>
2 5
uzna ć</w>
ra k</w>
p tak</w>
n Iie</w>
ch ó
znajom ość</w>
or e</w>
opar te</w>
mian em</w>
ka mieni</w>
jaki mi</w>
ci ad
żydow skiej</w>
prze grał</w>
le go</w>
wła dza</w>
rzeczywist ość</w>
cz ując</w>
ce ny</w>
ro dzi</w>
bisku pem</w>
Sa ra
szy n</w>
czy nu</w>
by łam</w>
V il
ślad u</w>
wza jemnie</w>
usłu g</w>
urzą dzeń</w>
rozko sz</w>
nag ród</w>
lekko atle
zajm ują</w>
intere sów</w>
wy chodz
srebr ny</w>
e i
do prowadzić</w>
S im
ło żył</w>
wy emi
obie dzie</w>
mie rz</w>
ku li</w>
Na zi
w rodz
su mienia</w>
mi g
o c</w>
d ować</w>
sar z</w>
pochodz ący</w>
Ż e</w>
ni owy</w>
na kaz
gospody ni</w>
ad ów</w>
S en
Flo ren
A ta
tra sy</w>
sie ń</w>
ka pry
ist niał</w>
cie niu</w>
Pi ęk
O dy
Char les</w>
rze ko
pły nął</w>
cha n</w>
wy razy</w>
wy czer
t t</w>
od waż
spotka niu</w>
no ta
lubi ła</w>
zatrzy mać</w>
sze wskiego</w>
ska za
sal onu</w>
je s
ist ot</w>
de kla
Ro man</w>
s uje</w>
prze dłu
młod ą</w>
la zł
la sach</w>
Mu rzy
L e</w>
F l
naz wać</w>
umie m</w>
ukoń czeniu</w>
serde cznie</w>
o ro
la bora
Woje wódz
W ali
śle dz
wi si
koro ny</w>
kon gre
znalezi ono</w>
wysy ł
uczu ł</w>
roze grał</w>
produk cja</w>
oko ła</w>
ia t</w>
lo w</w>
Bydgo szczy</w>
stanowi ł</w>
sp rób
prawdziw ą</w>
egzempla rzy</w>
Księ stwa</w>
tro sk
t te</w>
po ra</w>
na rzecz
bog aty</w>
i dy</w>
Mona chi
zmar ła</w>
wys p</w>
Fe sti
lek ka</w>
s ho
pie rał</w>
d t</w>
zauwa żyć</w>
mor skiej</w>
meta fizy
marszał ka</w>
ja śni
inżynie r</w>
W szyst
wa sz
osiąg nięcia</w>
nosi li</w>
korzyst ając</w>
uli cach</w>
si k</w>
prac owała</w>
po l</w>
gi nie</w>
dostęp u</w>
miaste czka</w>
19 11</w>
ry tu
ra nie</w>
piosen kę</w>
dob ro</w>
ob cy</w>
kow anej</w>
bu ty</w>
T O</w>
D en
roz kazy</w>
oś miu</w>
okupa cji</w>
mo r</w>
tej że</w>
parla mentu</w>
ma cji</w>
twór ców</w>
które ś</w>
Brazy lii</w>
wy prost
syste my</w>
na ja
lu ź
an e
st ol
sma ku</w>
lo cie</w>
c ro
Meksy ku</w>
wie ża</w>
w kład
sa mow
o ły</w>
ro ck</w>
re mi
a mi
Anto niego</w>
pod szedł</w>
osiąg nąć</w>
ludz ką</w>
E k
zw anej</w>
poło żenia</w>
l w
je go
ce ch
Inter nati
Ale x
my mi</w>
da nie</w>
zost ają</w>
sied li</w>
pia st
p lot
na pisać</w>
do łu</w>
a ma</w>
u pew
mi ałam</w>
konfli kt</w>
g da
ce chą</w>
przedstawi ciele</w>
aut ost
K olo
znajdow ało</w>
warsza wskiego</w>
stat ki</w>
sen s</w>
he im</w>
B ob
wy mar
siedzi bę</w>
par tyj
niebezpiecze ństwa</w>
Mon go
wa ć
potrafi ł</w>
ni owie</w>
młodzie ń
kierow ał</w>
R an
wojen nej</w>
po kon
ki wał</w>
bud że
L ar
za moż
aż by</w>
G ór</w>
sty cznie</w>
rów ne</w>
mun d</w>
konie czne</w>
god y</w>
y m
wywo ły
po dać</w>
gra nica</w>
Ma ciej</w>
Gdań sk</w>
ziel ony</w>
s pr
9 ,
. ...</w>
radi o
e mpi
czy ńskiego</w>
cie ć</w>
cz kami</w>
L am
właści we</w>
pis m</w>
n ém</w>
S por
wybu ch</w>
rodz a
odpowie dnie</w>
niez rozu
lite ry</w>
barba rzy
szpita la</w>
samochod ów</w>
poży te
obie kty</w>
li ne</w>
inwe sty
u świad
rozpoczę ły</w>
roz budow
pat y
och otę</w>
Z el
O S</w>
in st
mina rium</w>
ukry ć</w>
rze ce</w>
pre sji</w>
okru cie
na pły
mi nie</w>
he ł
wyd ane</w>
nie ma</w>
man ew
zbudow ano</w>
spad ł</w>
noż nej</w>
kwi zy
ho me
czę s
zgo dził</w>
sk oru
ok ład
nie przyjaciela</w>
No e</w>
ó j
węd rów
kompozy tor</w>
twórcz ość</w>
te sta
smu tek</w>
podstaw owe</w>
kom er
Ogó lno
zw anego</w>
rzą dził</w>
reali zacji</w>
prosi ła</w>
nię tych</w>
Le wi
Cze chosłowa
prze klę
du m</w>
alko hol
u na</w>
ten den
ka wiar
god ny</w>
zjawi ł</w>
wi ał</w>
qu e
po kazuje</w>
ni onej</w>
cj om</w>
ar ka</w>
ad woka
a muni
nienawi ści</w>
kul tura</w>
bi o
re be
polity czny</w>
Bał ty
war t</w>
ując o</w>
uczę szcz
pozost ało</w>
angiel skim</w>
Białoru si</w>
ode zwała</w>
istot ę</w>
Pu ł
P os
k tami</w>
E wa</w>
re cep
ma chi
Li ceum</w>
roz trop
g alakty
J en
uczel ni</w>
li cze
kan celar
j on</w>
gre ckiej</w>
s nęła</w>
ne utra
A i
wier sze</w>
t ony</w>
przyję cie</w>
pla nie</w>
czo le</w>
aut ory
ty czy</w>
pi na</w>
ba zy</w>
świąty nia</w>
za pomi
wie ksz
ni re</w>
ma tem</w>
cy r
W ał
Smi th</w>
J owi
Frydery k</w>
wykona ł</w>
schod ach</w>
mił ości
ko ja
Ra ci
pusty ni</w>
po biera
kobie cie</w>
ał ości</w>
Wilhel ma</w>
wy pła
tra f
st any</w>
p łe
dar mo</w>
Ra dziwił
ścia nach</w>
peł nia</w>
b ra</w>
Wojcie cha</w>
G on
19 13</w>
nazwi skiem</w>
i li</w>
brytyj skiej</w>
konfli ktu</w>
cz łek</w>
zachod nio
ta s</w>
prawdzi wie</w>
oj cze</w>
D ż
12 0</w>
poważ ne</w>
ost o
najstar szy</w>
mię sa</w>
ż onych</w>
piel grzym
ż ach</w>
t wych</w>
st rój</w>
sie dzieć</w>
po sel
dyre ktorem</w>
C A
rza dziej</w>
rozmawi ać</w>
ro so
rze li</w>
ka mienia</w>
h y</w>
bo ur
Szko cji</w>
A niel
za uważ
ty ków</w>
stos owana</w>
ch ła
właści ciela</w>
B row
wy wia
wszyt ko</w>
u dać</w>
prot oty
porów ny
l że
d uje</w>
H ali
od ro
komó rek</w>
poru cznik</w>
ka cje</w>
Biał ej</w>
zada ń</w>
ob wi
l śni
hu mani
S pra
Monachi um</w>
Mary i</w>
zdol ny</w>
szep nęła</w>
legł ych</w>
zg ła
studen tów</w>
zwło ki</w>
pan nę</w>
B ona
Au stri
Alber t</w>
ży wy</w>
sytua cję</w>
licz b</w>
czy źnie</w>
ści anę</w>
zachod nich</w>
za prezen
parafi alny</w>
od dzie
n ną</w>
Pol skie</w>
po stę
wios ną</w>
li cy</w>
cyk l</w>
bi ony</w>
tu tejsz
szyb ciej</w>
określi ć</w>
kar i
G im
190 4</w>
we r</w>
do g
ci chu</w>
wy my
st kę</w>
przyzwo i
powi nie
największ ej</w>
charaktery styczne</w>
za wa
mo m</w>
hy m
si sta</w>
ni we</w>
mit ologii</w>
kole j</w>
e go
wykona ne</w>
przy kry
S au
wojen nym</w>
mini ster
m nego</w>
fina n
wyż sza</w>
wys oką</w>
na stąpiła</w>
gu e</w>
E wange
B ul
190 7</w>
reży ser</w>
kole gi
czyst ego</w>
b łon
śpie wa
stąpi ły</w>
s cha
r é
po rę
ob łą
mod u
koncep cji</w>
c ti
zacz ąłem</w>
po si
prawdzi wa</w>
dow ano</w>
dob ie
to f
scena ri
był ą</w>
y wać</w>
wi i</w>
przy bli
powst ają</w>
dźwię ki</w>
daw ali</w>
narodow ych</w>
D ia
y e</w>
nie możliwe</w>
Pa nie</w>
zw anych</w>
trze cią</w>
proś bę</w>
produk cję</w>
okoli c</w>
P in
tam tych</w>
stos owanie</w>
kse m
dłu ga</w>
L .</w>
I n</w>
mi ona</w>
ko na</w>
austra li
an ce</w>
wie dzę</w>
we szli</w>
symbo lem</w>
posta nawi
pocho dzenie</w>
pa kie
ja ski
świę te</w>
szcz ęd
dzieci ństwa</w>
bru tal
Pary ż</w>
tam tej</w>
siost rze
oś cie</w>
o rach</w>
Ma h
wę gl
się ga</w>
sie dząc</w>
dzie ży</w>
brze giem</w>
Dy wizji</w>
zareje strow
po dzię
p le</w>
asy sten
J ar
zobowią za
zasłu gi</w>
progra mów</w>
pomor skim</w>
ni Ee</w>
do r</w>
artyku le</w>
zd em</w>
mę czen
dokona ć</w>
N E
Kana dzie</w>
z mianie</w>
sk y</w>
s ową</w>
nie potrzeb
190 8</w>
Świę to
wa ch
s sy</w>
stos owania</w>
posłu sze
niez noś
han del</w>
Ki r
war ii</w>
po infor
ż eni</w>
wybrze żu</w>
s ch</w>
nade j
kow skich</w>
drewni any</w>
do mag
Sta tist
syste mem</w>
sej mowa</w>
stan ą</w>
przy wie
ja cy</w>
uroczyst ości</w>
I ie
Na ro
Gab rie
wyż szego</w>
wewnętrz ne</w>
bie gu
wyso ka</w>
wykona w
roz pal
licz ąc</w>
kopal ni</w>
sprę ży
l ane</w>
zapo mina
róż nymi</w>
prze ciąg
po t</w>
które goś</w>
konsekwen cji</w>
spe dy
aj my</w>
wyobra zić</w>
skład ają</w>
Z ło
ro ba
kości ołów</w>
Ma dzia</w>
Chi ca
stanowi ła</w>
publi kacji</w>
Nazi onale</w>
większ ego</w>
roz er
nę dzy</w>
muzy k</w>
księ stwa</w>
Na czel
y n</w>
poprzed nich</w>
o dziedzi
mo skie
B ory
Bibli ote
w nego</w>
te sa</w>
pot rzą
kow anym</w>
je ńców</w>
d łem</w>
ber ga</w>
za cię
stitu to</w>
os ło
nienawi ść</w>
c ra
bu rz
sma k</w>
ru m</w>
rozsze rz
wytwór ni</w>
teat rze</w>
pan owanie</w>
jed nemu</w>
a niem</w>
I A</w>
peł nej</w>
znajd ujące</w>
sto m</w>
ró z
stawi ł</w>
po pi
ni nie</w>
grun tow
Guer man
poz woli</w>
pięk ność</w>
obowiąz ków</w>
rozle gł</w>
wi osen
sil nym</w>
rekor d</w>
f ery
opar ciu</w>
Edwar da</w>
smut ku</w>
por ę</w>
Pat ri
świę tej</w>
współ cześnie</w>
ni g
lo tem</w>
zrobi ła</w>
opowiad ania</w>
cze pi
sk ow
pod mi
na pot
muzy cznych</w>
la r</w>
ut ów</w>
prze mian</w>
pię ci
ką ta</w>
im perium</w>
he re
pos ły
on ek</w>
niez dol
oblicz u</w>
o powieści</w>
ele mentem</w>
roz myś
ju z</w>
Pier wsz
wła dz
miej skiej</w>
ma niu</w>
gabine tu</w>
u mowy</w>
og e
Za ko
s ja
pod nosząc</w>
Wołod yj
szlach ta</w>
obja wy</w>
le ci</w>
au dy
nadzie ja</w>
dzi ny</w>
tek sty</w>
oś wiat
history czne</w>
gra na
S ą
wiecz oru</w>
dziewczę ta</w>
cy zm</w>
Cie bie</w>
szczegó ły</w>
ryce rzy</w>
po szli</w>
narzę dzia</w>
ba zyli
Lo ve</w>
stąpi li</w>
po ła
księ ciu</w>
urzą dzenie</w>
ty ra
sz waj
oś c</w>
dłuż szy</w>
chce cie</w>
z ną</w>
wro gów</w>
olbrzy mi</w>
go kolwiek</w>
zrobi ło</w>
wyż szy</w>
pal cami</w>
okro ć</w>
czą t</w>
zwró ciła</w>
swo jemu</w>
nia ka</w>
chow ski</w>
przewodnicz ącym</w>
pra wach</w>
kra wę
da e</w>
A g
zni szczenia</w>
re feren
następ ca</w>
ą za
skór ę</w>
rezer w
ja skra
j ały</w>
ch i</w>
zmar łego</w>
y n
nagro da</w>
Wokul ski</w>
żyw ot
wspól ne</w>
zna cznej</w>
w ci
ha t</w>
cza k</w>
acz kolwiek</w>
zam knął</w>
w kę</w>
u jemy</w>
u jaw
szu kając</w>
przy biera
obowiąz ku</w>
naj popular
je cha
czy ta</w>
francu skie</w>
dzi kie</w>
brze gi</w>
A p
s cenę</w>
muzy ce</w>
dy spozy
czerw onych</w>
Nie ch</w>
wy nagro
ile ż</w>
cią ży</w>
był ych</w>
R at
uważ nie</w>
u staw
pły t</w>
og a</w>
kochan ka</w>
dziewię ć</w>
dal szej</w>
c owej</w>
L en
I P
Or deru</w>
I stituto</w>
ludz ka</w>
kie mi</w>
al fabe
za bud
po rządek</w>
ona r
obec ne</w>
Ju gos
Da nii</w>
ser a</w>
Indi an</w>
tor pe
plan u</w>
per i
głos owania</w>
Wa len
S ko
O n
skal ę</w>
ry sy</w>
2 50</w>
y b</w>
ma leń
li ry
bra kło</w>
B N</w>
uni wer
tra sie</w>
su fi
kon tu
dzięk uję</w>
wi le
cze kając</w>
Mi li
sto jąc</w>
m ki</w>
cz niej</w>
K li
se kcji</w>
rodz eni</w>
prz ó
mod el
ko de
śpie wał</w>
pan uje</w>
miesi ąca</w>
jak bym</w>
g ują</w>
dy stan
cz ości</w>
Statist ica</w>
sposob ność</w>
na i</w>
l ó
S ła
Fran k
prze chodz
dzie m</w>
ś wier
praw nych</w>
Wa w
Ży d</w>
wy war
ręka wi
należ ących</w>
gł ód</w>
bizan tyj
S P</w>
3 .</w>
186 3</w>
wojewódz two</w>
brąz owy</w>
Za wi
sz liśmy</w>
sta bi
nik cze
dzienni karz</w>
trz ci
naj wybit
li wszy</w>
190 9</w>
dodat kowe</w>
cie c</w>
Pol skim</w>
M A
zmieni ła</w>
uży cie</w>
sta cje</w>
publi czności</w>
przesz łość</w>
niech że</w>
przemy sł</w>
ma gna
ele m</w>
190 6</w>
we sel
ost ro</w>
odci nków</w>
do zor
si od
opie ki</w>
gęst ość</w>
c oną</w>
za dziwi
spor o</w>
na turę</w>
ż ono</w>
piłkar ski</w>
pa sz
geni usz</w>
c kiemu</w>
H ie
zaję ty</w>
obja ś
log ii</w>
ko medi
funk cjona
wojsk owego</w>
de lega
napis ane</w>
dzie ż</w>
P owi
ż onie</w>
angiel skiej</w>
żyw ności</w>
sz or
wy gła
polity kę</w>
Su de
F ri
krąż ow
goś cie</w>
Te sta
Elżbie ta</w>
tra ci</w>
pró ba</w>
duchow ny</w>
Gda ńska</w>
zd ało</w>
popu lacji</w>
po maga</w>
owi sko</w>
ot wór</w>
mi mow
król ową</w>
gro bu</w>
Tur cji</w>
uczu ciem</w>
posiad ała</w>
poczę li</w>
ple cy</w>
królew ski</w>
eg zy
Se ba
rozma it
j ki</w>
Bla ck</w>
sta niu</w>
publi cznie</w>
prz odu</w>
dz eni</w>
cj um</w>
przyję ła</w>
mie śl
k cje</w>
chwi lach</w>
u fun
sza cu
na krę
kow ymi</w>
c ę
Kró la</w>
te lnie</w>
pułkow nika</w>
powstrzy mać</w>
od pły
katastro fy</w>
energi ę</w>
A gen
prze py
pr ądu</w>
bieg nie</w>
Obro ny</w>
wol ne</w>
wa szych</w>
sła wem</w>
są dzić</w>
Nob la</w>
że bra
naj sil
k le</w>
W P</w>
ni owa</w>
CE T</w>
tr wał</w>
o ży
mo stu</w>
Al fre
łó dź</w>
zaczy nają</w>
wnio sk
st on</w>
nie m
mi nę</w>
ś miać</w>
umie ra</w>
przy pisy
j ską</w>
szczęśli wie</w>
sp ry
mil kł</w>
met r</w>
gi mi</w>
Ki chot</w>
nie ud
Chica go</w>
poprzed niego</w>
żydow ski</w>
słysz ąc</w>
o pozycji</w>
ca r</w>
ło k
uzna nie</w>
powta rzał</w>
Me dy
D V
wygra ła</w>
w bi
rosyj skie</w>
or t
natural nych</w>
Wiel kim</w>
O f</w>
sze fem</w>
pr ąd</w>
pod rę
odby wają</w>
mo na
kow anego</w>
Internati onal</w>
zdoby wając</w>
pu ła
na ż
f fi
pod nieść</w>
z mu
przeznacz one</w>
Katowi cach</w>
za się</w>
su mie</w>
najwyż sze</w>
me sa</w>
em ery
cho rego</w>
Rzecz pospoli
za szczy
tera ź
ch wal
za dow
Wikipe dia</w>
wyróż nia</w>
w ającego</w>
ucie kać</w>
słow i
przy nosi</w>
twier dził</w>
producen t</w>
p ery
mani fe
Ko lum
z mie</w>
wy ga
wa cji</w>
pol sku</w>
ba l</w>
S D
F A</w>
ż ona
wy pę
mogł oby</w>
ką pie
jąc ymi</w>
będ ąca</w>
Prze łę
spraw ował</w>
Swan n</w>
wy m
soju sz
domow ej</w>
szero ki</w>
s przed</w>
ogól no
niedziel ę</w>
naz w</w>
na mie
miesz k
melan cho
ci sz</w>
błę dy</w>
K lar
wy kaza
ta tar
me dia</w>
gaze ty</w>
mo j
kon dy
cięż ar</w>
błogosła wie
Ros ja</w>
Dąb row
Cesar stwa</w>
lit ość</w>
ist niały</w>
ciep ło</w>
an tro
są dy</w>
głębo ki</w>
fi i</w>
E sto
ło ży
ru iny</w>
pos łów</w>
inst ala
zbudow ane</w>
ró że</w>
mia rach</w>
ki r
zapew nić</w>
rzemi os
a st</w>
oł tarz</w>
odci nka</w>
Spra wied
Kalifor nii</w>
sz cie</w>
stworz ony</w>
nie przy
Mar ta</w>
y t
y l
warst wy</w>
ż ka</w>
spół ki</w>
ryce rza</w>
regular nie</w>
przeniesi ony</w>
przekona ny</w>
Ch rz
ty ś</w>
t her
szac unku</w>
sz kiem</w>
skon stru
powst rzym
koch ała</w>
klu cz
hrabi na</w>
dr o</w>
ciep ła</w>
Wi ki
wy nios
tru ci
mieszka niu</w>
kry mina
kapli ca</w>
posiad łości</w>
bawi ł</w>
żydow skiego</w>
zaproponow ał</w>
ści ą
ksią że</w>
czar nego</w>
chorob ę</w>
Wschod niej</w>
sta l</w>
gro b
do kon
O pera
sz at
g nę
przy rodz
mu ra
wyjąt kowo</w>
spo ry</w>
S T
E s
łu pi
rami on</w>
ży wych</w>
ut kwi
promieni owania</w>
poczę ły</w>
mi le</w>
do k
wy rzut
wo zy</w>
wi ła</w>
czyst ym</w>
założ one</w>
z ki</w>
ule gł</w>
postawi ł</w>
pe l</w>
ok e
nazy wane</w>
Do mi
ucz ony</w>
transpor tu</w>
s cho
o szczęd
b ą
Nau k</w>
Chrystu s</w>
7 3
ka rza</w>
j ała</w>
st ko</w>
religi jne</w>
ob rzę
dy kta
den bur
G wia
leż ą</w>
dziel nica</w>
dzi ki</w>
pro sta</w>
okaza ć</w>
le w</w>
ł ko</w>
ta rzy</w>
owi ska</w>
dziewczyn ka</w>
b on
słucha j</w>
ri ę</w>
prze prowadził</w>
gęst ości</w>
czar no
R aj
tow ar
ok nem</w>
dzieci om</w>
zbro jnych</w>
ró sł</w>
lo g</w>
gra ła</w>
A ni</w>
wu j</w>
przebie g</w>
państw owych</w>
wy ku
wszyst kiem</w>
poło żeniu</w>
poszczegól ne</w>
p lą
kontro lę</w>
francu skim</w>
B un
zda mi</w>
wy stąpiła</w>
s my
pos pie
W szech
zdra j
nie wielka</w>
eksplo ata
dziedzi ny</w>
charakteryz uje</w>
by wa
W aty
t wej</w>
krze sła</w>
godzi nach</w>
N an
Ja ck
od mówił</w>
koń cem</w>
koł nie
dale ce</w>
zostawi ć</w>
wy jeżdż
do stała</w>
Ma cedo
sie go</w>
do sięg
Pod la
u kło
por tu
międzynarodow ych</w>
epi z
w ani</w>
ur u</w>
połow a</w>
po lach</w>
oto czony</w>
fote lu</w>
Lu ksem
pro mo
odd ali</w>
niebie skie</w>
moż ność</w>
lok alnych</w>
przygot owania</w>
mie liśmy</w>
wol nym</w>
wnę trze</w>
przy niosła</w>
n ące</w>
Rz ym</w>
wy myś
w sy
naz ist
bisku pów</w>
u pi
m g
du r</w>
b row
ON Z</w>
trud ne</w>
społe cznego</w>
ze zna
weź mie</w>
ur s</w>
tłu mu</w>
propa gan
po pę
młodzie ż</w>
gryw ając</w>
doku ment</w>
Norwe gii</w>
or i</w>
opowiad ać</w>
kocha na</w>
bie ga</w>
Przy by
M S
zwier ciad
przer wy</w>
po myśleć</w>
Wa le
- -
potrzeb ował</w>
w ająca</w>
p hi
fil mach</w>
wyzna nia</w>
szlachci c</w>
sen sie</w>
b n</w>
Sz koła</w>
inteligen cji</w>
ge l
Lou is</w>
zie nia</w>
zbior u</w>
ru je</w>
pali wa</w>
nie istnie
Musi c</w>
m skiej</w>
kapła n</w>
za sła
skut ki</w>
pun ktem</w>
odnale źć</w>
ki bi
do prowadził</w>
bog ini</w>
Pom or
opar ta</w>
nia ków</w>
i dę</w>
Maksy mili
spa cer
re r</w>
nie określ
konferen cji</w>
chrześcija n</w>
Le onar
ide a</w>
zł ym</w>
zw raca</w>
wojen ne</w>
sły szy</w>
kon tr
klasz torze</w>
Prezyden ta</w>
za li
cz wo
Va len
K ę
Jan usz</w>
świat łem</w>
siost rą</w>
na łu</w>
mor skie</w>
Nati onal</w>
pozost ali</w>
m oto
gra m</w>
Dzie ń</w>
zachow ały</w>
g era</w>
smu tny</w>
po jechał</w>
dru kar
mil czał</w>
biz ne
D NA</w>
let nią</w>
Ja cka</w>
Atlan ty
ży wa</w>
sukce sem</w>
se tki</w>
ra p
py ty
przej ści
ha b
To ur</w>
wy rob
postępow ania</w>
na prawi
Vi c
Do ro
zapom nieć</w>
sk ur
Po ni
żał ob
za rzuc
symbo liz
s przyja
pił ce</w>
ob jęt
dowod ów</w>
be ł</w>
ńst wu</w>
utrzy manie</w>
u stan
sp er
inte gra
złoż ony</w>
wyso kiego</w>
wykona nie</w>
szy f
roz mów</w>
niesły ch
na tę
Dawi d</w>
ta rzem</w>
poś lubił</w>
ofiar ą</w>
kie r</w>
gó d</w>
by wał</w>
u sze</w>
cze gó
Mo re
An der
wykony wania</w>
wy gło
wi li</w>
odzna czony</w>
krew nych</w>
Ch an
zwolen ników</w>
ra tów</w>
niebo szczy
go ni
dow ody</w>
at h</w>
Gali cji</w>
zg rzy
szacu nek</w>
strasz ny</w>
por wał</w>
owo ce</w>
on ki</w>
ni ane</w>
m że</w>
gnie wa</w>
M un
Am erykań
A war
m roku</w>
f l
empi ry
dr ą</w>
E l</w>
ń skiemu</w>
nie jedno
fie ld</w>
char y
we mu</w>
tempera tura</w>
cy lin
zem sty</w>
op ty
nie wielki</w>
regu la
ral ne</w>
ow anymi</w>
ni mem</w>
mie go</w>
kar t</w>
Wie r
usz ka</w>
przy łącz
kosz tem</w>
h oj
bie giem</w>
wewnętrz nej</w>
powo dzeniem</w>
po chodził</w>
li ni</w>
szcze ro
ran ny</w>
ob ce</w>
niepodległ ość</w>
nazw ał</w>
ja l
de pu
R ada</w>
G B</w>
rze mieśl
re formy</w>
o pisał</w>
be c</w>
Pra w
si ą</w>
m ająca</w>
czy sz</w>
błęd ów</w>
ludz ki</w>
C ur
a spe
względ ów</w>
widz ów</w>
nau czył</w>
na wia
Pu łku</w>
For mu
zatrzy my
w pis
trze m</w>
każ ę</w>
Wi ktor</w>
Niem cami</w>
Krzyszto fa</w>
wojen nego</w>
od pad
młodzie ż
met od</w>
ciąg nie</w>
w r
sąd ów</w>
nauczy ciela</w>
au x</w>
Fili pa</w>
Di vi
zł ych</w>
u cał
ki o</w>
czerw oną</w>
ar ki</w>
ź wi
w sa
przeznacz ony</w>
mo z
fa zy</w>
za nadto</w>
A ir
usprawied li
sz pe
po ry
ku li
daw nym</w>
o siad
nie od
miał by</w>
do stat
ob wodzie</w>
mien ne</w>
gnie wem</w>
D nie
łow ej</w>
znaj du
wybudow ano</w>
wi dzą</w>
pozost ały</w>
k er
dzie cię</w>
sj onal
rozgry wek</w>
ral nych</w>
ko niu</w>
dag ogi
zawiera ją</w>
zainteres owania</w>
wyzna wców</w>
klasy fikacji</w>
łóż ko</w>
upad ek</w>
ku la
gł szy</w>
wo dza</w>
przyja z
mili ar
i di
den t</w>
at or</w>
a f
Mosk wy</w>
sto ku</w>
Lu bo
2 4
t in
sła be</w>
ryw ając</w>
powo dzenia</w>
pi ąc</w>
ni ające</w>
V an</w>
S S
za chodz
pęd u</w>
kwia t</w>
ku lar
chi rur
stre fy</w>
przyzna ł</w>
m nym</w>
Towarzy stwo</w>
A z
za kład</w>
towarzy sz</w>
pi n</w>
towarzy sza</w>
szta bu</w>
spodzie wać</w>
li m</w>
Kró l</w>
Grze go
polity cznego</w>
ow e
K oł
zy skał</w>
za wiad
wska zał</w>
Z bro
Bro ni
ć i</w>
szy ng
S he
ti na</w>
resz tki</w>
zna ków</w>
wi one</w>
per so
let nich</w>
k wan
doku mentów</w>
c Z
Lot ary
A ch
tek ście</w>
pi ani
okaza ła</w>
księżnicz ka</w>
hon or</w>
do mek</w>
Szko le</w>
mo k
le wym</w>
choci ażby</w>
b ob
Konstanty no
wy sa
tysi ąca</w>
kt ura</w>
k łu
Rad io</w>
żołnie rza</w>
zna ją</w>
for mat
Krzy żem</w>
prób uje</w>
przysz łego</w>
poczu ł</w>
ie n</w>
fakty cznie</w>
śniad anie</w>
szko l
sp ał</w>
otrzy mać</w>
il u</w>
gar dło</w>
żad ną</w>
wy czerp
wielo ma</w>
stra ż</w>
siost rę</w>
dow o</w>
ab stra
sp ła
po py
po p</w>
obserwa cji</w>
ja n</w>
ro u
prze wa
o ż</w>
got owe</w>
d aję</w>
H un
wiar y
usta mi</w>
tr wać</w>
god ność</w>
bry gady</w>
ba ć</w>
K r
użytkow ników</w>
pur pur
kur s</w>
Y a
Toma sza</w>
zna ną</w>
u stroju</w>
szwaj car
na kazał</w>
M ol
sreb ra</w>
niesi ono</w>
nadzie je</w>
doprowadzi ło</w>
najwyż szej</w>
talen t</w>
konstruk cja</w>
O ri
Hen ry</w>
ze zwo
kosz ul
dzie go</w>
M oł
li nę</w>
czterdzie ści</w>
Je st</w>
w prawi
js cy</w>
europej skiej</w>
rzek łszy</w>
pre cz</w>
ci om</w>
b ną</w>
O strow
łoż a</w>
cie les
wy pi
szere gi</w>
skrzy deł</w>
potęż ny</w>
po ciągu</w>
amerykań skim</w>
wy t
ta niec</w>
sz aty</w>
se y</w>
organiza cje</w>
oblicz e</w>
lan d
Ne a
wie dza</w>
ter ie</w>
reż .</w>
uja wni
para fie</w>
os u</w>
obec nego</w>
głos i</w>
zało ga</w>
wal a</w>
u p</w>
trakta tu</w>
katoli ckiej</w>
grun t</w>
Pe ter</w>
zł ość</w>
toż sam
rozgryw kach</w>
preze sa</w>
m nog
ho s</w>
V an
Uni ted</w>
szcząt ki</w>
porozu mienia</w>
ob ar
S ho
kow aną</w>
ha ma</w>
g owej</w>
wy pada</w>
prost ej</w>
la e</w>
gałę zie</w>
San ta</w>
C le
zna lazł
wy par
wart ości
pęd em</w>
po sze
g n
elekt row
będ ących</w>
za sy
proce sów</w>
p nie</w>
kwad ran
g rób</w>
chor ób</w>
S zo
u zależ
o powiedzieć</w>
g owie</w>
ener ge
ch wie
T ow
F el
Bi zan
pamię ta</w>
odróż nieniu</w>
odkry to</w>
dob i
Lu dowej</w>
Kon rad</w>
znow uż</w>
zna kiem</w>
języ kach</w>
fe stiwalu</w>
te st
t hu
prawdzi wym</w>
ostat nio</w>
Wiel ką</w>
Par la
za wzię
wró t</w>
wnio sku</w>
tam tego</w>
stan ąć</w>
po daw
materi ały</w>
ka le
istot ne</w>
Londy nu</w>
K ło
powa gą</w>
ozdob i
in try
funk cja</w>
E .</w>
x z
regi on</w>
produ któw</w>
met ry</w>
a ra
Sy cy
urzęd ników</w>
powró cić</w>
niez licz
je sz
budow li</w>
U rodzeni</w>
Bel gii</w>
wpły w
sie dzieli</w>
od mieni
nos em</w>
gl ob
He in
zakład y</w>
legen dy</w>
i żby</w>
Sy l
wy ruszył</w>
u mi
pogląd ów</w>
na sta
Inter ne
A S</w>
przy si
przygot ow
Kie dy</w>
powi ąza
ha bili
grun tu</w>
fa ktem</w>
znalaz ło</w>
uzna nia</w>
star ca</w>
naj głęb
dwa naście</w>
usiłow ał</w>
ma ra
kościo łem</w>
c owe</w>
zaczy nał</w>
za g
wie dzie</w>
nazy wają</w>
młodzie ńca</w>
e s
czyst ą</w>
alko ho
Lw owa</w>
świę to
stos ować</w>
dy mu</w>
uj rzałem</w>
lek ki</w>
archite ktury</w>
roz pę
rezulta cie</w>
preze sem</w>
maj or</w>
lot nicze</w>
Zie mię</w>
K obie
A T</w>
u miała</w>
publi cznego</w>
komi sji</w>
il l</w>
H au
Doli ny</w>
190 1</w>
t niej</w>
po granicz
Ma li
zie miach</w>
ze n</w>
mru knął</w>
kow ały</w>
k wie
br u</w>
świe c
ś ru
zacz ąć</w>
sa rza</w>
od było</w>
nie db
cieka wość</w>
Ś wią
leg e</w>
le tnie</w>
Cz łowie
Ba bi
Ł y
zagad nień</w>
szpita lu</w>
pat rzy
f lu
dz onego</w>
Zachod niej</w>
190 3</w>
upad ł</w>
sły szę</w>
s chi
patri oty
go łę
P ad
przekona nie</w>
mo rzem</w>
dzi kich</w>
ta li</w>
m uje</w>
znajd ujących</w>
rów na</w>
pole cenie</w>
cze kała</w>
Zbi gniew</w>
Piłsud skiego</w>
P le
teri a</w>
przera ź
pra wym</w>
S os
świat ową</w>
wypad ki</w>
uto ż
tow anego</w>
prze ry
ob l
gad ać</w>
cj oni
sto jący</w>
sa k</w>
przyję ty</w>
part ie</w>
di ą</w>
Sa mu
Marci na</w>
Li twi
sk in
puści ła</w>
la s
bit wę</w>
He i
ow atych</w>
druży nie</w>
brytyj skich</w>
nie znane</w>
Au stria
środowi sku</w>
popar cie</w>
doku menty</w>
rab i</w>
czoł gów</w>
cywi lizacji</w>
Spo łe
Mar tin</w>
tam tym</w>
nicz ki</w>
nadz or
n s</w>
mar li</w>
Bibli i</w>
wypad kach</w>
ten czas</w>
rad ą</w>
należ ące</w>
mił oś
J ul
Franci sco</w>
wokali sta</w>
podstaw owym</w>
kry ształ
D .</w>
An ti
zdaw ały</w>
wy stę
wy kwin
przeciw ników</w>
najlep szego</w>
kre wni
edy cja</w>
T rak
sprze daw
ic an</w>
do okoła</w>
M I
B ad
wybudow any</w>
wy twa
ut ę</w>
twier dzy</w>
ry k</w>
Trój cy</w>
pokry te</w>
kol ogi
gło sie</w>
Francu zów</w>
u sytu
t j</w>
pa nię</w>
let nim</w>
ka mi
e li</w>
cy h</w>
cj o</w>
za gląd
prowadz ono</w>
portu gal
por t
poli s</w>
d r.</w>
zakre s</w>
wybra ć</w>
są dził</w>
ni owym</w>
krzyw dy</w>
jsz ego</w>
b ały</w>
ato li</w>
K ing</w>
IS BN</w>
Egip cie</w>
śpie wać</w>
u da
ser c</w>
podkre śl
jed n</w>
war te</w>
prywat nych</w>
na pis</w>
moż ności</w>
e d
Rad ia</w>
wo zie</w>
ologi cznej</w>
od będzie</w>
i o
T A</w>
Katarzy ny</w>
Ar mia</w>
groz i</w>
ek spedy
dłu go
ch ot
Re wolu
Mie czy
pier wsi</w>
mecha nizm</w>
ha f
zoba cz</w>
rami onach</w>
C ię</w>
u czyn
ty ce</w>
sz ki
syj ne</w>
socja li
przy śpie
nieskoń czon
gł ów</w>
W spó
sen su</w>
muzy czne</w>
li łem</w>
bi ła</w>
bar do</w>
Wię c</w>
DV D</w>
zy sk
polity czną</w>
olog ię</w>
ówczes nego</w>
zaję li</w>
tajem nicę</w>
szero kim</w>
króle stwo</w>
ga zu</w>
wy ry
w nej</w>
rozpa cz</w>
pła szcz</w>
dziew cząt</w>
15 00</w>
za tar
su mę</w>
s póź
ran gi</w>
pot ém</w>
ści ami</w>
urodz eni</w>
roz miarów</w>
pl .</w>
otwo rzyć</w>
nadzwy czaj</w>
muzy ką</w>
lo nie</w>
bu rzy</w>
S on
u wi
słu cha</w>
należ ały</w>
fer ę</w>
An ty
wz roku</w>
u e</w>
sy nowie</w>
pó ż
or dy
mło dzi
kla sa</w>
ile kroć</w>
dre wna</w>
O stro
wie rzył</w>
sz ne</w>
ra ka</w>
podob nej</w>
o kazy
któ ra
do staje</w>
di al
ba t</w>
R ów
re wol
pió ra</w>
pe re
nu mer
gałę zi
g owe</w>
pięk nym</w>
namie st
na rzuc
ce na</w>
zim na</w>
są dzi</w>
jeste ście</w>
P il
wy puszcz
prze kazy
het man</w>
goś cia</w>
za czerp
u słyszeć</w>
sk ąd
okre śla
ni ający</w>
nazy wana</w>
mil czenia</w>
ch ud
Ś wiad
łow ego</w>
ł kę</w>
zawod u</w>
posiad ać</w>
pod nó
fig ur
do na</w>
chce my</w>
wykona ć</w>
u biera
tę dy</w>
miesiąc ach</w>
g owa</w>
tre ner</w>
metod ą</w>
7 00</w>
zaję cie</w>
za stał</w>
sa l</w>
cj usz</w>
y o
spodzie wał</w>
nie leg
ko bi
dz onym</w>
za rob
ma k</w>
leż ały</w>
di n</w>
batali on</w>
poj ąć</w>
p. w.</w>
l al
kole gów</w>
warsza wskiej</w>
rzeź by</w>
p t</w>
N KW
ę dzi
prze chod
dr ę</w>
Tu ry
żoł ąd
uzyska nia</w>
ta ki
szczy zny</w>
skut ku</w>
ref lek
pi ąt
obsłu gi
mniejsz ą</w>
lit ości</w>
ktu rze</w>
łat y</w>
spotka ń</w>
p zre
ofiar ę</w>
odkry cie</w>
młod szy</w>
litera tura</w>
Soli dar
wskaz ując</w>
podstaw ę</w>
po kład</w>
na ło
karabi n</w>
ka rze</w>
j ą
chemi cznych</w>
a kty
T .</w>
Lubli nie</w>
Ju ż</w>
łagod nie</w>
wy nale
waż nych</w>
w ającą</w>
samochod u</w>
s nu
pamię taj</w>
organiza cję</w>
mili ony</w>
ja nia</w>
współ pracował</w>
przebo jów</w>
medycy ny</w>
dzie c</w>
z wię
postanowi ła</w>
k cją</w>
bu rza</w>
De parta
od miana</w>
jas ny</w>
czyn nik</w>
Pod staw
O krę
1 ,5</w>
wpły wów</w>
czy sta</w>
bi m</w>
Wy dziale</w>
uczest nik</w>
trze ź
po k
ofen sy
D un
Łó dź</w>
z łem</w>
kow atych</w>
powi ąz
nie chę
de szczu</w>
bied na</w>
Ol szty
społe czny</w>
bo ja
NKW D</w>
w pada</w>
sła wie</w>
sukce sy</w>
schod y</w>
mul ti
kom or
O bywa
Kore i</w>
ł byś</w>
prezyden tem</w>
o powie
mar ki</w>
bra cie</w>
Por t</w>
Jo a
pa cie
now ymi</w>
a ńskiego</w>
Kie l
zdoby cia</w>
współ pracę</w>
spowod owane</w>
owi c</w>
dział ają</w>
Pi s
tele fo
tech ni
konta kt</w>
got owa</w>
cha na</w>
N owa</w>
Kraj owej</w>
ż o
tr wało</w>
pe ten
korzy stać</w>
c ając</w>
Ka wale
ł aj
w ającej</w>
spor t</w>
równowa gi</w>
od noś
dz ali</w>
cja li
al gory
Wil nie</w>
Artagna n</w>
ruszy li</w>
wi ony</w>
oj ców</w>
wyd aj
ok ół</w>
filozofi a</w>
chłop i</w>
ąc emu</w>
y d</w>
si r</w>
s powie
peł no</w>
obec nym</w>
B li
przykład y</w>
li ka</w>
Pa cyfi
łow o</w>
wykorzysty wane</w>
woła nie</w>
t ości</w>
t ha</w>
ple cami</w>
leż ące</w>
j i
gra czy</w>
Si ł</w>
Katarzy na</w>
to ć</w>
potę pi
p szcz
Ka mi
wę ze
w przó
przypad ków</w>
polity ce</w>
ne z</w>
kardyna ła</w>
fron cie</w>
Ka m
zakoń czenie</w>
wz mac
meta l</w>
c owych</w>
zabyt ków</w>
reprezenta cja</w>
komplek s</w>
gór nej</w>
uniwersyte cie</w>
t ko</w>
staro sta</w>
mił e</w>
licz ny</w>
dzie wią
Le e</w>
woj sku</w>
wizy ty</w>
wa y</w>
spor tu</w>
Be au
wytłuma czyć</w>
so cjal
ni nę</w>
f lan
cał em</w>
ż andar
y u</w>
utrzy mania</w>
połą czeniu</w>
poci sków</w>
pisa rzy</w>
ce li</w>
Ch rze
zewnętrz nych</w>
wyda niu</w>
wspom nień</w>
głębo kim</w>
Instytu t</w>
utworz ony</w>
stra chem</w>
równo leg
nu s</w>
Ver dur
Sz ta
zauwa żyłem</w>
li wsz
kin gu</w>
zawar te</w>
wykona ny</w>
uro dzenia</w>
robi ła</w>
Kle men
róż nego</w>
prawdo podobne</w>
odde ch</w>
lam py</w>
kwali fi
i gra
bli ska</w>
miej skiego</w>
królew skiego</w>
cięż ką</w>
Fin landii</w>
wa p
ple mienia</w>
d woj
Pa pie
se ni
wo zów</w>
róż nicy</w>
la sem</w>
c au
z różnic
wikipe dy
tow anym</w>
sk ości</w>
prze sunię
portre t</w>
oma l</w>
W W
u pra
tro pi
si n</w>
prze kazał</w>
o łem</w>
fil mowy</w>
rośli n
mi sjona
jedy nego</w>
by liśmy</w>
wy szli</w>
ek stra
Ch miel
wy chy
w ciel
niewol ników</w>
klę ski</w>
ja nie</w>
H and
G od
z je
u poko
st ia</w>
spo krewni
owa wszy</w>
organiz mu</w>
dło nią</w>
S łowi
E dy
u przed
ta lii</w>
ju sz</w>
g t
be ł
K ri
wyra zić</w>
wod aw
uli cą</w>
trze j</w>
rej onu</w>
publi czne</w>
natural nego</w>
głę biej</w>
Mar szał
znik nął</w>
wojen ny</w>
w ską</w>
twa ch</w>
profe sorem</w>
c owy</w>
wy odręb
roz prawi
r tu
kura t</w>
kilko ma</w>
h en</w>
ener gia</w>
Tho mas</w>
4 .
ści ę
po rzu
mistrzost wa</w>
mecha niz
kre s</w>
ki j
k el
Raf ał</w>
Mic roso
żół ty</w>
wier ny</w>
post ul
obie ktu</w>
gar niz
du chem</w>
Win cen
utru dni
ra nia</w>
opie ką</w>
do mini
posiad anie</w>
od not
nie poję
gnia z
czyta nia</w>
twór cą</w>
pow ód</w>
potęż ne</w>
pierw ej</w>
m ka</w>
biał oru
ad ę</w>
Man u
G l
wspani ałe</w>
te tu</w>
pan owała</w>
owa niach</w>
sz onym</w>
pierście ń</w>
mi now
kwest ia</w>
S par
uzna ny</w>
utwo rzenia</w>
umieszcz ony</w>
uczest ników</w>
pod nosi</w>
na wy
kt ow
Woj na</w>
Su per
J ele
F I
wypad ków</w>
umieszcz one</w>
ra cje</w>
ciem nej</w>
O le
zawod ów</w>
południ owych</w>
m gnie
k y</w>
P ost
tch ó
tar czy</w>
począt ki</w>
pił ki</w>
mist rzy
dow ali</w>
zgod ę</w>
zam ę
pozwo lić</w>
gru be</w>
de mo
be ne
an ta
Wroc ław</w>
wład ców</w>
swob ody</w>
mistrz ów</w>
bi je</w>
a nar
żół te</w>
zw ąt
zapy tała</w>
si li</w>
pol .</w>
cen z
Lu bel
A posto
wygląd ała</w>
wier szy</w>
sa t</w>
Kor pusu</w>
wia t</w>
sprzeda ż</w>
konstytu cji</w>
g owego</w>
Jugos ławi
siedzi by</w>
no cie</w>
czyni ąc</w>
cie szy</w>
190 2</w>
współczes nej</w>
prze kony
ow cy</w>
ma rz
fron t</w>
dobro dziej
ą ż</w>
ja ja</w>
fede racji</w>
d owania</w>
autono mi
za znacz
uj ścia</w>
t kli
rzeko mo</w>
prze wro
najstar szych</w>
bl ady</w>
Ro ck</w>
.. ..
średni cy</w>
t os
któr éj</w>
dzien nie</w>
ciem nych</w>
Le szek</w>
B os
rezer wat</w>
pa cho
opuści ła</w>
ob łu
ciągł e</w>
łą ki</w>
zło żyć</w>
znajo my</w>
u miesz
narodow ego</w>
n od
Be ski
Amer ican</w>
wzru szenia</w>
przewodnicz ącego</w>
kola nach</w>
Z wycię
wczo ra
w kra
szcz ą</w>
pal cem</w>
od ra
nie tylko</w>
wie zd
w lek
o zwał</w>
lu dy</w>
ciąg nąć</w>
ak e</w>
dziw nym</w>
dale ki</w>
Wło chy</w>
Ber lina</w>
un ął</w>
s pór</w>
na ru
n óż</w>
fir m</w>
egzy sten
ży jących</w>
tro nie</w>
rosyj ska</w>
ap te
Po cz
Pa mię
Komite t</w>
wie ż
pasażer ów</w>
nie znacznie</w>
ludzi ach</w>
dz u</w>
skoń czyła</w>
Szwej k</w>
legen dar
kar pa
ir lan
czyst ości</w>
zalicz a</w>
wod nych</w>
warsza wskim</w>
sympat y
stan em</w>
progra my</w>
oto czeniu</w>
okolicz nościach</w>
nieu f
muzy cznej</w>
G nie
A li</w>
świad kiem</w>
pu ste</w>
prze ła
po żar</w>
p s.</w>
nazy wać</w>
miar em</w>
d rą
czy nów</w>
by l
batali onu</w>
Z ł
184 8</w>
zna my</w>
w sie</w>
u chodzi</w>
jesie ni</w>
jednost aj
boga ctwa</w>
Mi t
wyda wać</w>
smu tne</w>
religi a</w>
kontynu ował</w>
kapi tan
ciąg nęła</w>
świad ków</w>
wprzó dy</w>
strz ały</w>
mądro ści</w>
me na</w>
ko mo
głowa mi</w>
zło dzie
ra cją</w>
Sak so
prag nę</w>
pierwia st
obro nę</w>
meta lu</w>
c onego</w>
ar ium</w>
Wyż szej</w>
S D</w>
zamknię ty</w>
tur e</w>
sza m
sal onie</w>
resta ura
pięk nego</w>
ofi ce
obszar ów</w>
mar i
m d
le ya</w>
dziw na</w>
zmieni ono</w>
ma ja
kto rzy</w>
j my</w>
znie ść</w>
zi ła</w>
wszyst ka</w>
mi ss</w>
brytyj skiego</w>
albu mie</w>
śpie wa</w>
plan ów</w>
mi li</w>
dz oną</w>
d ing</w>
cho dzenia</w>
Portuga lii</w>
M e</w>
C ru
ś c</w>
wy myśl
twier dzą</w>
ta be
praw ne</w>
on ę</w>
niebie ski</w>
kalen da
Narodow y</w>
świa te
zdecy dowanie</w>
pła cić</w>
imi ona</w>
by d
Na vy</w>
K wa
ś ród
zdoby cie</w>
prze wi
dor f</w>
c s</w>
S ty
B ut
łow ym</w>
łat wością</w>
ubra nie</w>
pyta ć</w>
prze zro
prawdziw ego</w>
part ner
mi ło</w>
Le ś
wywo dz
wydaw ała</w>
sta w</w>
st rzał</w>
ci n</w>
Na g
ś więc
rz ały</w>
kolej ną</w>
istot ą</w>
Zjedno czone</w>
Trak ta
sk ot
pła kać</w>
produ kowany</w>
pli ków</w>
plemi on</w>
pan ną</w>
nie wielką</w>
c H
bi ografi
Sz czy
M aty
Lucja n</w>
pu de
pozwal ają</w>
me li
at h
wsty du</w>
rząd em</w>
zdu mie
sz ku</w>
skar b</w>
polity czna</w>
mó wienie</w>
lek kie</w>
ku pow
an ką</w>
łow ski</w>
wybrze ży</w>
ur t</w>
spogląd ał</w>
pro mienie</w>
gó ra</w>
brz mi</w>
Willi am
189 8</w>
ów dzie</w>
utrzym uje</w>
szep tał</w>
stu lecia</w>
sta cję</w>
ra tu</w>
odby wały</w>
dosłow nie</w>
a ro
a ktora</w>
wo koło</w>
szcze ń</w>
s ny</w>
W s
Pra wa</w>
zna czna</w>
poli cja</w>
p ą
mie czem</w>
lo kali
kie ł
dz ką</w>
de te
Zagł oba</w>
V o
He y
B A</w>
międzynarodow ej</w>
Wa szyng
wy z
tu l
szan ow
przy mi
e uro</w>
ch ry
a cz</w>
ćwier ć
zna nej</w>
wó dz</w>
two rzy
szar p
sz wa
obec na</w>
mu zę</w>
moc niej</w>
mniejsz ości</w>
he bra
D om</w>
radzie ckich</w>
powie dz
na wzajem</w>
o przeć</w>
ly wo
kilku dziesięciu</w>
gdy byśmy</w>
Hele na</w>
zrezyg nował</w>
zabi tych</w>
największ ego</w>
chi a</w>
b on</w>
sprze czności</w>
s ut
ob chodz
nu ż</w>
muzy ków</w>
lo kom
kategor ia</w>
F au
189 5</w>
środ kiem</w>
rz że</w>
nie na
ni ska</w>
k ing</w>
skład ał</w>
ośrod kiem</w>
og on</w>
ludz kość</w>
bo ję</w>
bar w</w>
awan sow
NA TO</w>
menta cji</w>
bo ta
zę bami</w>
użytkow nika</w>
procen t</w>
postępow anie</w>
doku men
da pe
Wydaw nictwo</w>
wspo mina</w>
uczy niła</w>
tłuma czy</w>
skład u</w>
proje któw</w>
pod stęp
obyczaj ów</w>
narzę dzi</w>
chło pa</w>
tytu ły</w>
man em</w>
il la</w>
pro pon
ka wał</w>
bla skiem</w>
ude rzenia</w>
tow ie</w>
spa ch</w>
przyjaciół mi</w>
naj słyn
ja bł
czę ste</w>
c owa</w>
by wało</w>
F red
ż re</w>
we i
najmniejsz ego</w>
naj niż
kon spi
Hit lera</w>
A k
śnię te</w>
za rabi
za kupi
we zm
usły szawszy</w>
skle pi
se mi
pię cio
pi rami
ci śnie
Wo ły
zdoby li</w>
towarzy sze</w>
t wy</w>
gu zi
Pre mie
P ry
Mia sto</w>
Ma ć
Gdy ni</w>
p ze
odwa gę</w>
mili ona</w>
ze s</w>
se na</w>
ha na</w>
fizy czne</w>
Rumu nii</w>
O P</w>
J ona
ń cami</w>
wydaw ca</w>
on ka</w>
fun tów</w>
Ru dol
é r
v ia</w>
li nią</w>
fa tal
ce n</w>
stadi on</w>
pró b</w>
jas na</w>
dz am</w>
at m</w>
a ński</w>
pozna ła</w>
ka r</w>
bole ści</w>
au ten
Do mini
zni szczyć</w>
znajd uję</w>
zbo ża</w>
wier sz</w>
sprzy mie
bu ch
P rin
stra cji</w>
twier dzenie</w>
słu ga</w>
nazy wano</w>
ki nie</w>
zmar li</w>
wy roku</w>
syl we
sprzed ał</w>
przer wała</w>
pa ster
licz bą</w>
d ono
d ałem</w>
ał ami</w>
P og
F le
zło ci
wyraz ów</w>
szcz ąc</w>
bi ą</w>
Cie szy
zajm ując</w>
ul t</w>
pogrze b
oficer a</w>
natural ny</w>
kt ró
kli mat</w>
bra mę</w>
Na grody</w>
K aj
wysł any</w>
wyd ają</w>
sła by</w>
przy ku
pi wa</w>
nazy wamy</w>
głów nymi</w>
fika cja</w>
cze niach</w>
ar ł</w>
E du
zewnętrz ne</w>
ucz onych</w>
prost ok
bi ura</w>
a wszy</w>
zbli ża</w>
wąt pienia</w>
rozwi ja</w>
ko le</w>
dzisiejsz ych</w>
du chy</w>
wy mie
zł ości</w>
wnętrz u</w>
wał ę</w>
poz wó
pow .</w>
cu m</w>
c onym</w>
Sie d
S pa
ład ne</w>
sce na</w>
obję cia</w>
będzie cie</w>
We wnętrz
Ży cie</w>
zna ku</w>
s nąć</w>
młod ość</w>
d ki</w>
ci chy</w>
do mo
H z</w>
to czy</w>
sł ą</w>
szczegól niej</w>
spe kta
koncer tów</w>
ł kiem</w>
zainteres owanie</w>
za spoko
tygod niu</w>
G .</w>
świat u</w>
dzi wszy</w>
18 31</w>
stał ą</w>
prze bra
otwar ty</w>
mia st
le wic
he ro
fa któw</w>
t to</w>
ser b
państ wem</w>
ogól ne</w>
mini strem</w>
hon oru</w>
dru go
bra kowało</w>
I z</w>
ła nia</w>
zna sz</w>
zi mą</w>
prag nienia</w>
peł nego</w>
obo z
m roz
ar e</w>
wia nie</w>
u por
u i
f ru
d .</w>
Ro u
Kow al
General nego</w>
s ala</w>
pochy lił</w>
la k</w>
prze tłuma
mal ow
k ujących</w>
czar no</w>
L ut
ten t</w>
s ci
przygod y</w>
lew ą</w>
fig ury</w>
cy j</w>
Ryszar d</w>
zasad ę</w>
mala rza</w>
Wę gry</w>
Wiel kie</w>
Gó rze</w>
Ślą sk</w>
sz ach</w>
przedstawi ć</w>
do pi
uroczy ście</w>
tow o</w>
rosyj skim</w>
bo i</w>
ucze ń</w>
szero ką</w>
pu d</w>
pry z</w>
pod su
niedo stęp
miaste czku</w>
Stowarzy szenia</w>
wz nosi</w>
we ne
ubra ny</w>
trzym ała</w>
odwie dził</w>
odkry cia</w>
lin k</w>
har d</w>
Pozna nia</w>
Lotary n
ła wy</w>
za cznie</w>
usun ąć</w>
u kara
stanowi ło</w>
północ nych</w>
intere sy</w>
cz ków</w>
ciś nienia</w>
w ste
w prowadzić</w>
té ż</w>
funkcjona ri
da kty
189 0</w>
za trud
służ ą</w>
pamię tał</w>
ost ry</w>
móz g</w>
jezi orem</w>
dy spon
cu k
Char lus</w>
wykorzyst uje</w>
wy miany</w>
wi cy</w>
u racji</w>
tra sa</w>
m nej</w>
francu ska</w>
Le a
Igrzy sk</w>
zło tem</w>
za rzą
za by
sti an</w>
po bud
następ cy</w>
dz ania</w>
189 7</w>
słu chała</w>
powo jen
na pędz
dołą czył</w>
Sc ot
t r</w>
opubli kował</w>
od niesieniu</w>
o li</w>
kom peten
ga cji</w>
Rosja n</w>
Ar tur</w>
popular ne</w>
ko py
Re d</w>
Bułgar ii</w>
B rz
pieni ęż
fron tu</w>
złot ym</w>
zda rzenia</w>
st róż
pa ń
mow ano</w>
m szy</w>
m bu
czyn ników</w>
ceremo nii</w>
bieg ał</w>
w ną</w>
propa g
dokona no</w>
A ir</w>
utwo rzenie</w>
u jem
słysze li</w>
szyb kie</w>
ra ju</w>
ma sy
d owana</w>
tru du</w>
suk nię</w>
sta wała</w>
potrzeb ny</w>
kierun kiem</w>
do sto
ana logi
We st
wod ach</w>
trzydzie stu</w>
kawale rii</w>
Minister stwa</w>
C op
n ących</w>
g d
wykon uje</w>
wy rze
poprze dz
pokon ując</w>
owa ch</w>
sło ńcem</w>
star szego</w>
row any</w>
posiad ania</w>
ch er
bie liz
S ur
S el
Ga ze
wy wi
staw ali</w>
ro gi</w>
pła kała</w>
ił ł</w>
fizy ki</w>
do roż
suk nie</w>
przod ków</w>
ple cach</w>
muzuł ma
mu rami</w>
kolej owe</w>
baro na</w>
M L</w>
za gar
ty py</w>
spad ek</w>
przepra szam</w>
och oty</w>
likwi dacji</w>
ka j</w>
czwar tej</w>
aj k</w>
zd rów</w>
ra sa</w>
przy sięg
gra niczy</w>
g rodu</w>
fi a</w>
P S
wy strze
uzysk ała</w>
sła wi
rozmawi ał</w>
przedsiębior stwa</w>
powie ki</w>
następ ny</w>
hi s</w>
ad op
TV P</w>
Pra dze</w>
Mar ia
zwycz aju</w>
sklep u</w>
mar ki
wyj ściu</w>
spo ży
duż ego</w>
ali an
Za mo
V en
K el
w nym</w>
przy stęp
ności om</w>
ist y</w>
ada pta
Dzie n
B en</w>
zd ał</w>
pa rob
n ką</w>
jed ności</w>
Rom an
Oj ca</w>
Frank fur
wzgó rzu</w>
utrzymy wał</w>
układ ów</w>
otwie ra</w>
o .
P lu
waż ny</w>
uro k</w>
с к
za koch
l owi</w>
zwierzę cia</w>
włas na</w>
szczegól ną</w>
spo żyw
najwyż szą</w>
liza cję</w>
k nia
jed nych</w>
c an
ar mią</w>
Pan cer
ziel on
w stawi
siad a</w>
prze sła
S ul
za tra
pre sti
poja zdów</w>
lo me
licz nymi</w>
k ano</w>
ja na</w>
Ot to</w>
Le on</w>
wskaz ują</w>
v ie</w>
nic kiej</w>
ju sza</w>
cz łe
M og
C lar
wy nu
pochodz ące</w>
mniejsz y</w>
ląd u</w>
bry lan
ta ńca</w>
c owego</w>
budow ą</w>
ak ce
J im</w>
Ł ę
szczegó łów</w>
po uf
pa lec</w>
ob sa
na j</w>
mi ni</w>
m owi
che l</w>
P PS</w>
K im</w>
189 6</w>
umie ją</w>
powst ałe</w>
po niż
patry wać</w>
lokom oty
gre ckiego</w>
drapie ż
Richar d</w>
świado mie</w>
ta ra
p p</w>
nazw any</w>
m nych</w>
księ ży</w>
dziad ka</w>
ńczy ka</w>
sł e</w>
pi su</w>
pi li</w>
ost re</w>
mniejsz ym</w>
a ka</w>
Igna cy</w>
szy by</w>
pozostał ości</w>
ko dek
dal szy</w>
łoż u</w>
ta cje</w>
przy puszczać</w>
O ber
Alberty na</w>
przeciw nym</w>
grze chu</w>
czo łem</w>
wy ników</w>
woje m</w>
spot kała</w>
po mie
zasię gu</w>
należ ąca</w>
w um</w>
ogni ska</w>
M ü
wzi ąwszy</w>
wyra ził</w>
umar ła</w>
sko m</w>
ro dze
wzmian ka</w>
t we</w>
starożyt nych</w>
prze de
koro nę</w>
Wschod u</w>
s orów</w>
ro ma
odwró t</w>
Euro pa</w>
sz o</w>
spoczy nku</w>
rów ni</w>
kolum ny</w>
h at
chci ałam</w>
ludz kim</w>
efe kcie</w>
W rze
żyw ota</w>
w stę
prze kle
dz onej</w>
c twem</w>
Y u
ście r
wstrę t</w>
wi ać</w>
star t</w>
stan o</w>
roz pra
nie praw
naj droż
kr wi
ga li
dra mat</w>
cią ż
N I
za wsty
za stąpić</w>
te zy</w>
rz ać</w>
reprezentan t</w>
otwar to</w>
e ki
d ino
czar y</w>
Sztu ki</w>
zer a</w>
uleg ła</w>
rzu t</w>
popular ny</w>
określ onych</w>
nie jeden</w>
mor fi
cz kiem</w>
bom bar
arcy biskupa</w>
Maz ow
zasię g</w>
zamor dowany</w>
su my</w>
stosun kach</w>
pta ka</w>
czegó ż</w>
szar y</w>
kań skiej</w>
do mach</w>
Ko mu
w chodził</w>
utworz ona</w>
tech nika</w>
roz kwi
nazw ano</w>
lekce wa
ko ż</w>
dzie jach</w>
Hie ro
sze l
skra ju</w>
roze bra
kształ tu</w>
Wysp y</w>
tro ski</w>
rz ąt
ow emu</w>
f do</w>
M ul
try b</w>
lu m</w>
efe ktyw
dowo dzi</w>
ba wet</w>
wy ty
wra żeń</w>
t ani</w>
róż nią</w>
listo pad
gospoda rza</w>
duch owie
A postol
ur i</w>
ty to
telewizy jny</w>
rze kom
przyjem nością</w>
pię trze</w>
nakład em</w>
ma li
Juli ana</w>
Guerman tes</w>
Gim nazjum</w>
żąda nie</w>
wyści gu</w>
roz wa
proce sy</w>
l owa</w>
c onej</w>
be ta
Rad o
Ber lin</w>
wska ź
trwo gi</w>
spoj rzeć</w>
igrzy sk</w>
dowod em</w>
Fe stiwalu</w>
ó l</w>
o me
ad res</w>
zmy słów</w>
ologi cznym</w>
m j
le czenia</w>
cu kier
chrześcija ństwa</w>
awan s</w>
wspani ały</w>
tó ry</w>
spo ka
określ one</w>
cie nia</w>
za ś
teor ię</w>
og rod
her bat
Ga le
189 9</w>
zni szczy
wzmian ki</w>
wil li</w>
u szek</w>
słow ie</w>
roz począć</w>
po ści
nie sprawied
dz ały</w>
czyn ny</w>
cyj nymi</w>
ologi cznego</w>
og ród
na lnie</w>
f fa</w>
el le</w>
S ad
przysz li</w>
ie l
ciężar em</w>
bra zyli
zawar ł</w>
por cie</w>
nosz ący</w>
lew ski</w>
h ali</w>
d po</w>
bud dyj
bl on
Wrocławi a</w>
S zam
proble mu</w>
ogro mnie</w>
leka rzy</w>
j om</w>
hiszpa ński</w>
prze jeżdż
brytyj skie</w>
wło skiego</w>
ty pów</w>
sprzę tu</w>
przypad ki</w>
prze mieni
oł tarza</w>
cie szył</w>
Pa s
B aj
ź dzie
n. e</w>
kome dii</w>
fi ole
bar y
zakład a</w>
za myśl
proś bą</w>
poten cjal
pojedyn cze</w>
dostate cznie</w>
US S</w>
M P
Bi g</w>
za szło</w>
u pro
to rzy</w>
przy nieść</w>
ciem no</w>
ał yby</w>
za obserw
pręd kością</w>
prze nieść</w>
ku la</w>
informa cja</w>
godz .</w>
Zofi a</w>
ta jąc</w>
t len
szar e</w>
sypi alni</w>
rzą dzić</w>
pozna łem</w>
na mal
konkuren cji</w>
istnie niu</w>
czerw onej</w>
że śmy</w>
świat owa</w>
zg ad
zastos owania</w>
są dząc</w>
przy wo
ha seł</w>
archi pela
prowadzi ły</w>
owi cach</w>
obro ńcy</w>
nie przer
mły na
emigra n
R O
B au
wol nych</w>
prze sł
ob razem</w>
kapi tał
i sa</w>
zadowol ony</w>
pi lot
ohy d
nau ce</w>
konkur sie</w>
zmar łych</w>
u porząd
odej ść</w>
mien nie</w>
zna li</w>
zde fini
t owaniu</w>
s pada</w>
poświęc ony</w>
po kazy
najlep szą</w>
za rządu</w>
uży wając</w>
lin g
Sy m
zja ty
skrzy dło</w>
poz ba
por .</w>
li on</w>
księ stwo</w>
C O
sz ała</w>
nego cja
ku char
konta kty</w>
działa czy</w>
do lina</w>
Witol da</w>
S ien
Francu zi</w>
zł ą</w>
wy prawę</w>
usz an
sin g
przypad kowo</w>
odpowied nich</w>
nu kle
Austra li
występow ania</w>
tłu my</w>
ne l</w>
grzbie t</w>
bieg ły</w>
F .</w>
C os
rów nie
opar ł</w>
napię cia</w>
maszy na</w>
U u
S ti
P ok
wy mow
umieszcz ono</w>
szczęśli wa</w>
stworz ona</w>
og ła
og ii</w>
eksp er
dat y</w>
czemu ż</w>
Col lege</w>
za pis</w>
s do</w>
po ryw
patru jąc</w>
nieskoń czenie</w>
nie wielu</w>
mi one</w>
ś pi</w>
po ster
głu pi
sposob ów</w>
sekun d</w>
po ł</w>
lu bo</w>
bieg ów</w>
S un
zie nie</w>
za bawi
wpad ła</w>
tow ały</w>
s nem</w>
ru mu
pr ą
ogól nej</w>
lot nictwa</w>
kul t</w>
f rak
Ch il
Ż u
st rze</w>
miej ski</w>
li ki</w>
cierp i</w>
Petersbur gu</w>
Par tia</w>
A sy
wyd ano</w>
sz ką</w>
częstot liwości</w>
Z en
Sy ber
Gru py</w>
szczegól ne</w>
przywód ca</w>
przyczy nę</w>
kształ ty</w>
k cjon
d Oo</w>
W at
sygna ł</w>
nieza dowo
cier pień</w>
ali zm</w>
P row
szko dy</w>
postanowi li</w>
ode tch
eks pre
bi ły</w>
ć a</w>
złot ą</w>
uj cie</w>
przy chyl
prakty ki</w>
pr ąd
osob om</w>
igrzy skach</w>
D onal
prze chodząc</w>
le c
kow y
do mier
ziem skiej</w>
sz kl
spad ła</w>
re zo
policz ki</w>
osobist e</w>
now skiego</w>
ktor y</w>
włos ach</w>
w koło</w>
st wach</w>
ponow ał</w>
mina cji</w>
m p</w>
bud ować</w>
am ery
Za kon</w>
Wy dział</w>
Wene cji</w>
uży wał</w>
probo szcza</w>
mawi ał</w>
lan dia</w>
czy nie</w>
Mini strów</w>
t ość</w>
na grał</w>
ciem ną</w>
staw u</w>
spogląd ając</w>
oto czenia</w>
niespodzie wanie</w>
mary narki</w>
cza na</w>
ły ż
urzęd nik</w>
ty gry
skar by</w>
se ce
ko d</w>
Star ym</w>
Mi ssi
Chrze ścija
zoba czy</w>
wdzię czności</w>
tygod nia</w>
na stawi
koncer ty</w>
kom pi
bu łgar
bieg li</w>
Le opol
Ch al
u ta</w>
st ada</w>
rozko szą</w>
ow ni</w>
na rody</w>
na biera
j o</w>
ing s</w>
zawod ach</w>
włos ami</w>
u kazy
słu chi
ro cka</w>
ką tem</w>
gt ;</w>
dziedzi niec</w>
dot k
& gt;</w>
zap ałem</w>
okrzy k</w>
od kąd</w>
ni zacji</w>
m kolwiek</w>
Yor k</w>
T to</w>
Poni at
Pier re</w>
Li fe</w>
Ban k</w>
za miaru</w>
tole ran
pocią gi</w>
de b
b nych</w>
a b</w>
wyraź ne</w>
cz owi</w>
tra wy</w>
stan ęli</w>
narodow e</w>
cięż ka</w>
Instytu cie</w>
Danie l</w>
zbior y</w>
uj rzawszy</w>
ki ne
dzienni kar
za kaz</w>
two rzyły</w>
niedo rze
następ cą</w>
dwu nastu</w>
Ha w
Do mu</w>
żona ty</w>
za ur</w>
re l
pio nie
człon ka</w>
świąty nie</w>
wy sunię
wy pa
ma sę</w>
5 .
ład na</w>
sil niej</w>
pow i</w>
najwyż szego</w>
hi per
ci che</w>
Katowi ce</w>
D do</w>
za gi
wyraź niej</w>
wol nego</w>
szcz one</w>
sil niki</w>
s ował</w>
ide e</w>
fina ł</w>
sz ając</w>
roz kazał</w>
pogo dzić</w>
od cię
o ca
kry sta
Puł k</w>
pa ste
nos ci</w>
kul tu</w>
kolej owy</w>
ja my</w>
w ory
pła cz</w>
pojedy ń
alkohol u</w>
t wu</w>
so ł
ocz om</w>
nosi ło</w>
ni łem</w>
na u</w>
lan ej</w>
do stanie</w>
ck y</w>
a taki</w>
Pra cy</w>
zna ła</w>
strukt ura</w>
przedstawi ciel</w>
in gu</w>
f r.</w>
człon kami</w>
czap kę</w>
al nymi</w>
E in
znajd ować</w>
sil ną</w>
se sji</w>
schod ów</w>
do znał</w>
Hon or
Cy rus</w>
zw anym</w>
re cen
drewni ane</w>
ul d</w>
p si
mi sja</w>
lek cji</w>
szko łach</w>
poz być</w>
porozu mienie</w>
le ki</w>
l ąd</w>
Sta r</w>
O kręgu</w>
Fi r
zdję cie</w>
rzym ski</w>
okolicz nych</w>
oficer owie</w>
do łącz
roz bu
o powieść</w>
gał ąz
K ad
rozsąd ku</w>
pod wór
peł nienia</w>
kla s</w>
Gu ber
dzi ą</w>
wy krę
otwo rzyła</w>
ni ową</w>
gene racji</w>
1 1
śre dnia</w>
wał am</w>
prowadz ona</w>
mi sję</w>
dłu giego</w>
Stowarzy szenie</w>
Ka ta
zagad nienia</w>
wątp liwość</w>
wewnętrz nego</w>
prze wagę</w>
li ter
at ą</w>
przekona ł</w>
pracow ni</w>
nie opodal</w>
krą g</w>
krai ny</w>
g ali</w>
by łyby</w>
ator ium</w>
TV N</w>
Ru si</w>
и ч</w>
dostęp ny</w>
czyz ny</w>
187 0</w>
wysp u</w>
ur ba
powierz chow
polity cznym</w>
cj usza</w>
W ła
O rze
Er ne
s n
ra my</w>
pó l
na n</w>
kre a
da s</w>
ciot ki</w>
chodz ę</w>
J un
Al ba
wdzię czność</w>
sąsiedz twie</w>
ska mieni
s pół</w>
przy ta
przy dat
nie przyjaciel
h aj
ź cie</w>
rp ze
re jen
po pra
naczy nia</w>
doskona l
domow ych</w>
bog owie</w>
E wangeli
Ar de
w g.</w>
kwa su</w>
daw ały</w>
be zna
potrze bę</w>
od daje</w>
dział eś</w>
cz nia</w>
aj j</w>
A dri
zbior ów</w>
sen ty
naz byt</w>
natural nym</w>
dra maty
bez sen
zabu rzenia</w>
u chwy
lotni sko</w>
cich ym</w>
ta tu
t chu</w>
stępow ał</w>
ar t.</w>
and er
stra ciła</w>
pa ński</w>
obycz aje</w>
nicz em</w>
li p</w>
dą ż
Wi ktor
za iste</w>
wał ą</w>
roz rzuc
po bła
na wek</w>
Za rządu</w>
K il
Jose ph</w>
zakład ów</w>
pi śmie</w>
nie rów
musz kie
mow ały</w>
Ka mie
ż we</w>
prze miany</w>
pod cza
ob le
ni nem</w>
ma rzenia</w>
ist niało</w>
ba sz
We st</w>
ń ka</w>
począt kiem</w>
patrz ą</w>
na cja</w>
kana łu</w>
fan ów</w>
będ ącego</w>
ż d
zwycię żył</w>
gnie źnie
daw ną</w>
cz ul
Microso ft</w>
Ku bu
wprowa dzenia</w>
uj rzała</w>
poe tów</w>
pie niem</w>
kom promi
for m
fabu lar
delika t
tury stów</w>
obej rzał</w>
istnie jących</w>
dow ała</w>
ut e</w>
prowadz ony</w>
po prosił</w>
ja c</w>
ciś nienie</w>
zd jął</w>
zako n</w>
za służ
stał ego</w>
og niu</w>
nie bow
mu rem</w>
kryty ki</w>
M ę
wydoby ć</w>
wir tu
u ka
mi t</w>
in fra
ch c
zor ien
szkie le
starożyt ności</w>
po pełnił</w>
ja rz
bisku p
Gos podar
F on
Ary sto
Alber ta</w>
wzgl ę
pomarań cz
mimow ol
emigra cji</w>
Wojen nej</w>
Akwi tania</w>
wierz ą</w>
samo rzą
opowiad anie</w>
oboję tnie</w>
nosz ące</w>
mien ny</w>
druży n</w>
cha m</w>
N MP</w>
Ka i
za kłó
wy step
w przód</w>
strzel ców</w>
p pe
nie ckiego</w>
napis any</w>
krzy ki</w>
ka me
archite kto
żeg lu
z dy</w>
sz nur
pod usz
ob dar
naj prost
mąd ry</w>
ko st
dal szą</w>
da dzą</w>
charaktery styczną</w>
bli ski</w>
ucie ka</w>
mow ali</w>
miaste czko</w>
aż że</w>
tech nologi
czyn ność</w>
budow ane</w>
zaufa nia</w>
wie ku
wczes nym</w>
szyb kością</w>
s so
kra jem</w>
ło pat
znie chę
zakoń czenia</w>
zajmow ała</w>
sław ny</w>
szcze niem</w>
obi adu</w>
ka my</w>
h n</w>
K k</w>
z że</w>
usta wa</w>
trafi a</w>
prost ych</w>
ob rząd
bra tan
a postol
Sztu k</w>
A M</w>
ż ną</w>
Ż ół
szla ku</w>
se t
przej rzy
prze stała</w>
profe sjonal
prawdziw ej</w>
poru cznika</w>
podsta w</w>
nin gra
li ński</w>
je li
ja ce</w>
hi p</w>
dź cie</w>
wyra ża</w>
we szły</w>
to s</w>
chci ałby</w>
Stru mie
G war
pokole ń</w>
infor maty
dod aje</w>
Mie js
przywi lej</w>
p kę</w>
owi a</w>
ni usz</w>
me czach</w>
e i</w>
atmos ferze</w>
I st
189 4</w>
zdą żył</w>
ros ną</w>
przy sł
kon cen
japo ński</w>
i usz</w>
filozo f
czyst ych</w>
bo li</w>
Mad on
wyj dzie</w>
uważ ali</w>
samobój stwo</w>
równoleg le</w>
pę t
przy wy
po pad
de san
zastęp ca</w>
u siadła</w>
przebie gu</w>
o la</w>
mądro ść</w>
m ni</w>
go li</w>
gitarzy sta</w>
czyt ałem</w>
c re
bl ada</w>
ad ź</w>
L ie
Bo e
żyw ego</w>
pokona ć</w>
pe ro
opi nię</w>
nie c
mó zg
m 2</w>
ch ając</w>
Sat ur
Ś mier
zazdro ści</w>
zabi ty</w>
w dowa</w>
poe zja</w>
ni we
ku le</w>
kali bru</w>
Or der</w>
H ow
układ y</w>
ste ina</w>
ogrom na</w>
gru by</w>
bad anie</w>
Toru niu</w>
Af gani
żołnie r
é e</w>
nawiąz uje</w>
na około</w>
ma rzeń</w>
li sz</w>
kom ory</w>
i ra</w>
f ą</w>
cięż kim</w>
che mii</w>
Poła niecki</w>
Jerozoli my</w>
zę bów</w>
wysił ku</w>
wy prawa</w>
uzbro jenia</w>
s sel
roz przestrze
puszcza m</w>
prze jawi
prac owi
centra lnej</w>
atmos fery</w>
Z marli</w>
Scho ol</w>
zi ma</w>
sz ków</w>
spo za</w>
krze śle</w>
gdy śmy</w>
el l</w>
zawod nikiem</w>
rodza jem</w>
owo ców</w>
nau kowej</w>
nau czyć</w>
cierpi ał</w>
Mist rzów</w>
sz owie</w>
popar cia</w>
pod ają</w>
nie li</w>
najmniejsz ej</w>
lu dni
kontynu a
komna ty</w>
k wie</w>
ani oł</w>
łańcu ch</w>
wspi na
wier z</w>
pas ma</w>
koń czył</w>
ka wy</w>
dzisiejsz y</w>
da chem</w>
Ri ch
w ającym</w>
w ady</w>
pro sto
pow ło
ne sa</w>
u chro
prze wid
potrafi ą</w>
opowiad ań</w>
li czyła</w>
legen da</w>
l any</w>
kra kowski</w>
każ ą</w>
ag go</w>
Republi ka</w>
właści wy</w>
prowadz ąc</w>
pozo stanie</w>
mogł yby</w>
fa kty</w>
Rzy mian</w>
Ko per
zagra ła</w>
uczy ni</w>
sę dziego</w>
sty li
g zie</w>
dzia wszy</w>
cier pienie</w>
bra mą</w>
Księży ca</w>
uzna wany</w>
strukt urę</w>
spad ku</w>
opi su</w>
je w</w>
bogat e</w>
Z at
ło nie</w>
w s</w>
prze pad
pan nie</w>
opera cja</w>
Wo li</w>
Kra ju</w>
spy tała</w>
sa nie</w>
ok la
kt ro
gre cko
ut le
przykro ści</w>
przełę cz</w>
narodow ości</w>
matematy ki</w>
Star y</w>
Kmici c</w>
. com</w>
y r
wy glą
wi cher</w>
ustawi cznie</w>
ologi czny</w>
ba by</w>
N R
. or
syj nych</w>
skierow ał</w>
po kre
no ce</w>
dzie cku</w>
bra kuje</w>
Le t
więzie nie</w>
powo dzenie</w>
ni ci</w>
in ga</w>
dorosł ych</w>
dobrowol nie</w>
bo ki</w>
T ol
ści śle
uży wają</w>
pozna je</w>
król owie</w>
ka dry</w>
chrześcija ńskiej</w>
za chwi
wz boga
wido kiem</w>
stał ym</w>
speł nia</w>
sk wa
oku pow
męż ów</w>
m gły</w>
gabine cie</w>
dywi zj
dek lar
Cha mpi
zupeł ne</w>
zaufa nie</w>
u lep
na stąpi</w>
staj ni</w>
przej ściu</w>
prze mian
p roz
k en
an ty</w>
administra cyjny</w>
Pi ę
zmę czony</w>
zapew nia</w>
ty na</w>
specjal ny</w>
ryce rze</w>
or gany</w>
od rzekła</w>
T en</w>
S owie
J el
z s
skro ś</w>
robot ę</w>
prze żyć</w>
na cie
an owi</w>
Wie tna
Pała cu</w>
G an
uj ął</w>
przy dziel
nie wielkiej</w>
gę sto</w>
drze wami</w>
der lan
przyczy nił</w>
parla ment</w>
ma l</w>
k ne
ewolu cji</w>
Wy bor
P C</w>
średniowie czu</w>
wi zję</w>
tre nin
sz kła</w>
pięt naście</w>
grupow ania</w>
cz ącego</w>
ci os</w>
C zu
Ba zy
spostrze gła</w>
obie ktyw
ma i
jed ność</w>
gre cki</w>
sil na</w>
n on
k la</w>
cu d</w>
cierpie ć</w>
ż ni
ż Ee</w>
zwyk łe</w>
zby te
sz owa</w>
resta uracji</w>
re gen
popular ności</w>
o pozy
eks pan
by dła</w>
ali śmy</w>
Ty m
ścież ki</w>
zi my</w>
wy poży
wy mi
prze paść</w>
następ ujących</w>
licze b
k łe</w>
Pow stania</w>
ü r
tow ało</w>
s chow
oby ć</w>
na jem
ka f
wy gry
pozbawi ony</w>
o szcze
kości ach</w>
katoli ckich</w>
ch łon
G run
2 ,5</w>
łat wie
wtrą cił</w>
sto r</w>
obo zów</w>
mo s</w>
mię so</w>
kra kowskiego</w>
jask ini</w>
nume rem</w>
kieru je</w>
głębo kości</w>
da sz</w>
Ni co
Fer nan
Ar me
żywo t</w>
zna czny</w>
szyb kim</w>
sy nowi</w>
sukce sów</w>
snad ź</w>
roz war
piosenkar ka</w>
obie cał</w>
może cie</w>
części ach</w>
Z dzi
Środ kowej</w>
zwyk ły</w>
wie de
ran kingu</w>
przypom nieć</w>
prywat ne</w>
ni skie</w>
k ujący</w>
go dzić</w>
Pe tro
18 15</w>
wa mpi
ułat wi
t k</w>
naj zupeł
la cję</w>
królew skich</w>
zle cenie</w>
ur g</w>
t Oo</w>
poru sza</w>
boha terem</w>
zabi ja</w>
prote st
nie chęć</w>
dostrze gł</w>
ał ość</w>
za akcep
v in</w>
od dale
m l</w>
dro gie</w>
ch ora</w>
P sy
zna łem</w>
zda ń</w>
sław nego</w>
s son</w>
postanawi a</w>
podzie lić</w>
nadzie ją</w>
esk ad
Oj ciec</w>
18 30</w>
а н
za pisy
włas nymi</w>
t ujący</w>
su mienie</w>
przyczy na</w>
posta wy</w>
monar chii</w>
zniszcz ony</w>
za wiąza
wyja zdu</w>
przeniesi ono</w>
nie przyjaciół</w>
ni am</w>
do ktor
dale kie</w>
H aj
rodzi nne</w>
po biegł</w>
pat ryw
nie d
na pole
na bi
bu kie
Ogólno kształc
żydow skich</w>
zwyk łych</w>
podle ga</w>
oś mi
ko ta</w>
Elżbie ty</w>
szczy ty</w>
swobod ę</w>
spowod ował</w>
publi czność</w>
powin ni
mini mal
emi towany</w>
dar e
ch mur</w>
wcześ niejszych</w>
dot rzeć</w>
cen den
Teat ru</w>
właści cieli</w>
występ ujące</w>
uwa gą</w>
tr z</w>
stoli cę</w>
spo rządz
ro da
przy prawi
p ha</w>
ogrom nym</w>
gre ckich</w>
f go</w>
da cja</w>
cy zmu</w>
Ł ot
ó d
zwycię stwie</w>
skle p</w>
ra dzi</w>
pło mień</w>
lot niczych</w>
li ż
G y
war mi
stan ę</w>
ral ny</w>
pó ty</w>
ci n
a kurat</w>
Mu rek</w>
wy kra
wa szego</w>
to po
T ych</w>
Pi kar
gł ą</w>
doj rze
cer kwi</w>
zbrod nie</w>
zbrod nia
ponie kąd</w>
najwyż szych</w>
księżnicz ki</w>
brze gów</w>
bardz ko</w>
1 20
Świą ty
zazdro ść</w>
uży wania</w>
pu cha
prze noś
dot kli
zach or
za prawdę</w>
wypowie dzi</w>
sj o
prze gląd</w>
p ti
oby cza
miejsc ami</w>
gro sza</w>
god nym</w>
cze li</w>
ban dy
Mo rzu</w>
sprzę t</w>
sied li
nast ego</w>
samot ności</w>
prze świad
praw nik</w>
powiedzi ane</w>
poczci wy</w>
mi ałe</w>
kolej na</w>
in tu
zda rzeń</w>
wzniesi ony</w>
trud nością</w>
po byt</w>
k su</w>
Pa uli
Cze chach</w>
C at
9 .
łow ał</w>
wspo mag
rzę dzie</w>
ob razie</w>
Napole on</w>
Ba ra
ś miały</w>
wsze ch</w>
niezawod nie</w>
i k
bra kiem</w>
wspól noty</w>
sy nu</w>
so łe
pa rze</w>
oprogra mowania</w>
licz nie</w>
Ch ile</w>
zain stal
wy miar
kosz ty</w>
is la
Ma n</w>
zapyta ć</w>
z my</w>
skar bu</w>
przy rze
podło dze</w>
papier y</w>
miesz kała</w>
instru menty</w>
ele mentami</w>
cz nemu</w>
cmenta rza</w>
administra cyjnie</w>
Willi ama</w>
ude rzenie</w>
o ś</w>
kosz t</w>
jąd ra</w>
głow nie</w>
ga s</w>
f lo
188 9</w>
ła wie</w>
uwie rzyć</w>
przepis ów</w>
prac ach</w>
od głos</w>
n ący</w>
Ksią żę</w>
wy stęp</w>
wró cili</w>
podwod nych</w>
peł ny</w>
zmieni ło</w>
wykorzysty wany</w>
wych owanie</w>
st ałych</w>
organ ów</w>
mon gol
me tra
im ał</w>
grze sz
Kra si
g mach</w>
bel gi
za bro
skoń czy</w>
row ego</w>
przedsta wienia</w>
nad szedł</w>
dziewię ć
ba s</w>
B oś
łącz ą</w>
łącz ności</w>
sied l
pro sząc</w>
głu po
er o</w>
Grzego rza</w>
ści aną</w>
zniszcz one</w>
wie czne</w>
roz gnie
przyję to</w>
porta lu</w>
kry j
Strze l
C ro
zdję ć</w>
wspar cie</w>
sil ników</w>
przesz ły</w>
Bu dape
Bar cel
Adol f</w>
z nę
umie ra
otrzym ali</w>
niezna nych</w>
ma py</w>
krze sło</w>
odpowiedzi alny</w>
Zachod nich</w>
Walde mar</w>
W S
uprzej mie</w>
po mógł</w>
pal cach</w>
od być</w>
kate drze</w>
do szła</w>
diab ła</w>
automaty cznie</w>
Zie mia</w>
w uja</w>
obro na</w>
niejedno krotnie</w>
na groma
mówi my</w>
miejsc owych</w>
ba li
Rob ot
met rii</w>
krót kiej</w>
da y</w>
zar u
za szczyt</w>
wi z
trans cenden
skoń czyć</w>
ja śnie</w>
O stat
Ne u
Mary narki</w>
wro cław
wojsk ową</w>
szpie g
sp ło
rodzin nym</w>
mal owi
dz ć</w>
cz ącej</w>
T am
s ha</w>
pła czem</w>
pro mień</w>
kar k</w>
k lan
gar a</w>
dz kę</w>
a posto
Li ve</w>
świę tą</w>
właści wym</w>
u stro
prze chodził</w>
e la
re ktor</w>
okru tnie</w>
me te
ist ów</w>
gał ą
dział ek</w>
Pacyfi ku</w>
studyj ny</w>
ru szyć</w>
por ty</w>
odkry ć</w>
kań ski</w>
chorą gie
Plat on</w>
zamie rzał</w>
zagro żenia</w>
row ą</w>
pat rzyć</w>
na ła</w>
histor ią</w>
a nato
Le g
4 .</w>
skru pu
puszcz a</w>
poto cznie</w>
nic kim</w>
mor e</w>
mar mur
kapł anów</w>
cof nął</w>
bi ło</w>
Ro ku</w>
prost ą</w>
pozwo lenie</w>
gór skie</w>
dow anych</w>
Juli a</w>
zanie db
ry mi</w>
obsłu gi</w>
mia rze</w>
krzy kiem</w>
dziw ną</w>
Za kład
188 0</w>
zmieni ając</w>
za wartość</w>
sto jącego</w>
ni źli</w>
mod y</w>
los em</w>
le je</w>
ki j</w>
dro bi
b rodę</w>
łon e
za cją</w>
z dać</w>
wy ni
wod ne</w>
wi ska</w>
trady cyjnie</w>
służ ące</w>
słuch ając</w>
stycz nymi</w>
ra li
osob owości</w>
odpowied nik</w>
krót kich</w>
forma cja</w>
ba r</w>
S. A.</w>
E i
6 .
tow arów</w>
przyby ciu</w>
pełno moc
olog ów</w>
ode brał</w>
lo b</w>
harmo nii</w>
g ri
c la
u ru
su m</w>
rzym skich</w>
przyby wa</w>
powie dzenia</w>
ow ników</w>
który ś</w>
iz ol
guberna tora</w>
drż ał</w>
dol nej</w>
dokład niej</w>
Z d
S ter
D J</w>
se p
północ nego</w>
przy kro</w>
powi a
kró lu</w>
dzi w</w>
O ch</w>
Han s</w>
zu ży
ude rzyła</w>
tek stem</w>
szwe dzki</w>
spraw dzić</w>
spad kobier
ot u
okol wiek</w>
odby wał</w>
noś c</w>
krzy czał</w>
komu ś</w>
kawał ki</w>
i ał</w>
dar y</w>
G ren
posiad a
p. n.e</w>
kul turze</w>
k anych</w>
dziewię ciu</w>
doda tek</w>
decy zja</w>
czyn niki</w>
Wi nicj
186 4</w>
ud ała</w>
otwar tym</w>
oficjal ne</w>
m gli
charaktery styczny</w>
wspól nej</w>
re dni</w>
prze bu
pole cił</w>
począt kach</w>
odci nki</w>
elektry czne</w>
Tere sa</w>
So cjali
Jan ka</w>
Fede racji</w>
3 000</w>
zgod ne</w>
wło żył</w>
mle ka</w>
bi li</w>
a zjaty
wy szuki
wspar cia</w>
ucz niowie</w>
uch wal
tk wi</w>
st ru</w>
sk ość</w>
ni czy
mu ze
dwie ście</w>
Le ch</w>
związ ani</w>
wy cią
uży ł</w>
skó rz
przy m
odpowiedzi alności</w>
kow ską</w>
sy ł
ser wer
ro by</w>
od u
mie sz</w>
lu ty</w>
j kolwiek</w>
głu ch
ciem ność</w>
bibliote ki</w>
Wy brze
Obywa tel
Gi o
A h
zawiera jący</w>
t za</w>
nost y
moty w</w>
mia stu</w>
Szczeci nie</w>
obsza rach</w>
mie c</w>
kierow nik</w>
kan u</w>
cha nia</w>
Pro je
N owa
è re</w>
zw aną</w>
wszy mi</w>
rela cje</w>
postanowi ono</w>
patrz ała</w>
pa gór
głęb oką</w>
dzi n</w>
dobro ci</w>
samodziel nie</w>
potrafi ę</w>
podło gę</w>
pobła ż
obję ła</w>
li m
kre śl
za wo
za mach</w>
y i</w>
pro pozycję</w>
poło żyć</w>
mie dzi
dzi ob
at ka</w>
W ą
St any</w>
z bó
wz niesienie</w>
war z</w>
t ały</w>
prze mówił</w>
podziel one</w>
kolej ności</w>
ch rzą
ch lu
Wol ności</w>
A ga
Ś ród
roz czar
pod y
my li</w>
je ne
herb aty</w>
ci na</w>
win nych</w>
stara nia</w>
ser ię</w>
ró l</w>
przypad a</w>
pozna nie</w>
ob al
kor pus</w>
ja li</w>
zrę cznie</w>
ja dł</w>
gro bie</w>
Mon te
G rab
węze ł</w>
tram w
posą g</w>
postawi ć</w>
ości om</w>
ksią g</w>
kom pozycji</w>
im pul
Wę grzech</w>
Piot r
za przyjaź
wie rze</w>
two rzeniu</w>
słab ości</w>
pow e</w>
litur gi
het mana</w>
Ch ło
pły t
o j</w>
ni any</w>
ló kł</w>
da ż</w>
an emu</w>
Po ko
A lę</w>
ź niej</w>
pozo stawał</w>
okaza ły</w>
do rob
bun tu</w>
To kio</w>
D wor
zi one</w>
więc éj</w>
sz mer</w>
rzad kie</w>
pch nął</w>
Gu i
zwie rzy
row ane</w>
prze lot
cha cie</w>
zm ody
zim ny</w>
zawiera jące</w>
wpły wa</w>
stanowi sk</w>
patrz ę</w>
hu mor
god ną</w>
cesar stwa</w>
wyposa żony</w>
sko czyła</w>
je dzenia</w>
Ho hen
pry mi
powsta ńców</w>
potrze bie</w>
po ni
nat rę
g sbur
Ch opi
szpita l</w>
kow skie</w>
auto rzy</w>
Fl ory
vi ce</w>
spra wami</w>
roz stawi
b nym</w>
7 .
zapła cić</w>
wyjaś nić</w>
pły nęły</w>
minu ty</w>
min g</w>
ki mś</w>
dz ało</w>
Radzie ckiego</w>
5 .</w>
ł anów</w>
wy ję
u wal
spokoj ne</w>
przepły wa</w>
ple ba
państw owej</w>
os y</w>
ju da
ciem ny</w>
budow ano</w>
ba u
and ra</w>
K ory
Ja ck</w>
naj prędzej</w>
międzynarodow e</w>
m gła</w>
at ora</w>
wykona na</w>
wios nę</w>
stra t</w>
a ktu</w>
Waw rzy
Mari an</w>
wy eli
we n</w>
un t</w>
syj nej</w>
opuszcz a</w>
komputerow ych</w>
h ucz
gra wita
bab ka</w>
Agnie szka</w>
189 2</w>
zię cia</w>
wschod niego</w>
u chodź
ty le
sz ała
sekre tarzem</w>
ok ów</w>
d l</w>
bi ało</w>
Histor ia</w>
trzy krotnie</w>
szu b
nie godzi
me ksy
kana le</w>
je wski</w>
dru ku</w>
ch lo
Głów nego</w>
Czar nego</w>
wych owania</w>
stre fie</w>
rozumie sz</w>
ka s
k lar
aktyw ności</w>
Kon rada</w>
ówczes ny</w>
ubra nia</w>
przy była</w>
pomoc nika</w>
na szy
jsz ych</w>
Pucha rze</w>
ś i</w>
wy chodził</w>
twar de</w>
to k
skró t</w>
s pis
rz ało</w>
roz gląd
re per
przy stąpił</w>
on owi</w>
he li
h c
dopły w</w>
ch ta</w>
wy d</w>
towarzy szył</w>
impre zy</w>
Ws chodzie</w>
Iz by</w>
ó j</w>
wi nem</w>
ukra d
tytu łów</w>
s owo</w>
r ż
pow zi
handl owe</w>
dziewczyn ki</w>
dia beł</w>
an ny</w>
189 3</w>
wios ny</w>
uzna no</w>
og ów</w>
królew skie</w>
e x</w>
bezpiecze ństwo</w>
Warsza wskiej</w>
tajem nic</w>
sz lo
sy no
fran ci
dwo rzec</w>
c x
zam knąć</w>
za stawi
społecze ństwie</w>
spo cz
skrzyd łami</w>
pi szę</w>
czą stki</w>
bom by</w>
Ś wie
ziem skich</w>
wz nios
sędzi ów</w>
od mian</w>
mary nar
licen cji</w>
brz miał</w>
V .</w>
Hu go</w>
F lor
Ż mu
zni szczenie</w>
zachod nią</w>
psych ologii</w>
C menta
ze sz
zato ki</w>
wyj ął</w>
wie kiem</w>
sto i
przepis y</w>
prze prowadzić</w>
pozwo liła</w>
posł ał</w>
pod ą
organiz m</w>
efe ktem</w>
ban kru
M ala
ź dzi
ówczes nej</w>
rz ono</w>
gości nnie</w>
Wład imi
B rac
ś w</w>
wa liśmy</w>
twa rzy
prze ze</w>
osobist ych</w>
angiel skich</w>
G am
zar a</w>
wy chodząc</w>
ter mina
koncep cja</w>
history ków</w>
wykształ cenia</w>
weso ły</w>
pojedy nku</w>
pat rzyli</w>
odpowiedzi alność</w>
naci sk</w>
me t</w>
kor pusu</w>
i mieni
epi de
chow skiego</w>
bru na
złoż ona</w>
w stała</w>
tempera turze</w>
fa c
cho m</w>
za myś
wie czny</w>
tar y
sal ę</w>
ot wór
osob ników</w>
niewia sty</w>
bisku pi</w>
an der</w>
A j
zwia st
wykrzy knął</w>
ti c</w>
tech nicznych</w>
ka ż</w>
doprowadzi ły</w>
środowi sko</w>
ozna czenie</w>
doświad czeń</w>
Zato ki</w>
Ate nach</w>
zamie rza</w>
za bar
sz um</w>
pł k.</w>
prag nąc</w>
kandydat ów</w>
ger ma
dwudzie sto
czer wona</w>
czaro dziej
żydow skie</w>
świ ąt
zatrzym ała</w>
uzbro jenie</w>
pod wo
ob ali
nie pokoju</w>
nie mow
mist er
g im</w>
c on</w>
X XI</w>
Fran z</w>
szy na</w>
ran ów</w>
pal ców</w>
otwie ra
obu dził</w>
nazwi sk</w>
międzynarodow y</w>
mian ował</w>
jedno czes
ra chu
proto ko
po szu
god na</w>
a zy
Sa pie
Pikar dia</w>
Demokra tycznej</w>
Cezar a</w>
Bry gady</w>
zaprojekt owany</w>
na le</w>
kwali fika
kryty ków</w>
grzbie cie</w>
gi gan
en zy
do któr</w>
świę tym</w>
terow ie</w>
rzu cili</w>
reda ktor</w>
pra zy</w>
ob el
mo le
gim na
bor ów</w>
wil go
roz wie
przedsta wienie</w>
mor ska</w>
księ ga</w>
dow ane</w>
Wielko polski</w>
zajm ować</w>
wal czy</w>
wa st
su bie
roz pu
pochodz ących</w>
Wo ło
sk owy
przy sią
praw odaw
mę ki</w>
dal szego</w>
wzgó rze</w>
wy prowadz
war stw</w>
u ry
rodzin nego</w>
podob ało</w>
oficjal nych</w>
moc ar
le czy</w>
g owi</w>
g og
e se
ży ję</w>
średni o</w>
względ nie</w>
stara ć</w>
poważ ny</w>
od ła</w>
lite wski</w>
li stach</w>
kl ąt
k was</w>
dziewczy ną</w>
Z z
świą te
ł ków</w>
y o</w>
wido ku</w>
sztu ką</w>
sur owo</w>
pod ała</w>
wykorzyst ując</w>
wi ę</w>
skierow any</w>
pow a</w>
po m</w>
d ka</w>
n t</w>
de dy
Mo rze</w>
zwro t</w>
zan ot
z ob
uważ ane</w>
t ing</w>
sil nych</w>
sa ni
ran kiem</w>
potwier dził</w>
chemi czny</w>
bi r
He li
łu k</w>
wie dź
wa lił</w>
sur du
pia szczy
od sła
ni sta</w>
legi um</w>
b rze</w>
at k</w>
Bo h
zaru mieni
wy st
war ta</w>
u lubie
sąsiad ów</w>
powoł ał</w>
pow y</w>
o v
moral ności</w>
eg z
c ą
P r
Organi zacji</w>
NA D</w>
Eu ge
zło tego</w>
szero kość</w>
ral nego</w>
p ała</w>
libe ra
inwa zji</w>
in u</w>
g po</w>
bie siad
zwięk szenie</w>
ran ka</w>
póż niej</w>
nie gdzie</w>
fizy cznych</w>
doskona łości</w>
czą stek</w>
AT P</w>
żąda nia</w>
zwyk łym</w>
właści wą</w>
wyra żenia</w>
uniwersyte tu</w>
trium f
to p
poszuki wania</w>
pie szo</w>
now ała</w>
mog łam</w>
gma chu</w>
cie niem</w>
śli zg
zasad niczo</w>
wywoł uje</w>
występow ać</w>
rozpoczę li</w>
lat o</w>
kań skiego</w>
du mą</w>
F ul
C lub</w>
Au s
Ad ministra
Ż a
wstrzą s
wa rzy
uśmie chu</w>
prost ym</w>
panie nka</w>
nieszczęśli wy</w>
archi diecezji</w>
Nea polu</w>
M and
J ur
2 3
że niami</w>
śmier telnie</w>
roz draż
republi ki</w>
pojem ności</w>
ne n</w>
na stro
kt okolwiek</w>
d rabi
ar mat
Szy mon</w>
N r</w>
zało żenie</w>
wy śmie
win na</w>
tar i</w>
dyspozy cji</w>
Ni ko
ówczes nych</w>
ów na</w>
wiel bi
westch nął</w>
sąd em</w>
stworz one</w>
sprawi ł</w>
pr o</w>
pa sy</w>
na pisana</w>
mu rach</w>
możli wa</w>
japo ńskiej</w>
gór skich</w>
guberna tor</w>
edu kacji</w>
an ci</w>
Sy n
Gre ków</w>
właści ciel
shi p</w>
pro stytu
powró ciła</w>
powie trzem</w>
pod trzymy
po może</w>
ob jąć</w>
naj bogat
ka wa
jsz ym</w>
b loka
absolu tnie</w>
M E</w>
Adol fa</w>
łą czyć</w>
ład ny</w>
zdol ne</w>
typow e</w>
tech nik</w>
presti ż
pisa niu</w>
nie oczeki
klu bów</w>
god nie</w>
ciem nym</w>
cie szy
186 7</w>
zamieszki wały</w>
wykorzy sta
sz na</w>
stara jąc</w>
przedsiębior stwo</w>
połą czyć</w>
powó z</w>
ga dzie</w>
a v
K sen
wywia d</w>
w chodząc</w>
pojedyn czych</w>
ograni czenia</w>
je wa</w>
a el</w>
tor u</w>
strasz na</w>
sk re
pa k</w>
ja cych</w>
z obowiąz
po śmier
p tu
ok nami</w>
moral ne</w>
cieka wo
bram ki</w>
ba ba</w>
B lan
zmart wych
umiejęt ność</w>
publi ka
ła t</w>
sł ów
rzut ów</w>
ktu arium</w>
kate dra</w>
b le
Bryta nia</w>
zawdzię cza</w>
wi działam</w>
srebr ne</w>
robi ę</w>
pły nęła</w>
pyta ń</w>
kło pot
kosz tów</w>
kondy gna
kilka set</w>
d ney</w>
H P</w>
wy lą
wa d</w>
proś by</w>
poświę cił</w>
dział ający</w>
do pie
ce lach</w>
T om</w>
znaj dziesz</w>
wzgl ędy</w>
wojsk owym</w>
przypomina ł</w>
powie dzieli</w>
potrzeb uję</w>
osiąg nęła</w>
o pisać</w>
meda lista</w>
kancelar ii</w>
hi p
go nie</w>
bied nego</w>
Re y
ń ki</w>
występow ała</w>
wyr wał</w>
sły nny</w>
stu b</w>
spowod owały</w>
rozu mienia</w>
rach unek</w>
przyjm ować</w>
przeszko dy</w>
po cze
os y
ne ss</w>
lod ow
k ury</w>
ła ch
wyso ko
upły wie</w>
tan e
rebe li
pu stel
pow stać</w>
b owy</w>
b lą
Ar no
więzie ń</w>
u mowę</w>
pokre wie
Tat arów</w>
Al l</w>
wło skiej</w>
tor i
ra tować</w>
nię tym</w>
klę skę</w>
k ujące</w>
g Oo</w>
dziel ą</w>
Arde ny</w>
é ri
obrzy d
a byśmy</w>
Z im
Wie de
Lubo mir
łow ą</w>
wprowadz ony</w>
spowod owała</w>
poto k</w>
pos łowie</w>
bior ę</w>
184 2</w>
szyb ki</w>
rzy sta</w>
mini strow
królew skim</w>
ja zdu</w>
en ko</w>
zo m</w>
prze sad
pi lot</w>
oś le
kar ku</w>
k et
fel d
G ö
trzydzie sto
szczegól nym</w>
szale ństwa</w>
sce pty
roz wojem</w>
po rzuc
o ma</w>
now otwor
kolej nej</w>
ciem na</w>
a po
O dro
De ut
Czechosłowa cji</w>
upraw nienia</w>
tę ż</w>
pę dził</w>
napole o
ki éj</w>
grom ada</w>
c ć</w>
An dr
stwier dzić</w>
społe czna</w>
samochod y</w>
rz onych</w>
powszech ne</w>
obie cy
du my</w>
Vin cen
Pola k</w>
zrobi ę</w>
zapa sy</w>
ut i
noż na</w>
nie bem</w>
mun dur
Wy sp</w>
wy poczy
wi nę</w>
plemi ona</w>
nie bu</w>
lotni ska</w>
ko sti
ko pu
by cie</w>
W ad
Dawi da</w>
Ba tali
uważ ana</w>
przeprowadz ono</w>
poświę cić</w>
pozbawi one</w>
niesie niem</w>
literac kiej</w>
dz em</w>
bra mek</w>
Wy spi
Jadwi ga</w>
za plan
wybrze że</w>
szta fe
sie j</w>
pozostawi ając</w>
pozor nie</w>
nió sł
m ma</w>
kul turę</w>
za cieka
t po</w>
puszcz y</w>
odz wier
oba wa</w>
możli wych</w>
lok alne</w>
general ny</w>
Stre et</w>
S la
Pan u</w>
Dy wizja</w>
uj rzeć</w>
pod dać</w>
owa liśmy</w>
możli wie</w>
lod u</w>
działa niu</w>
Verdur in</w>
M ły
śred nich</w>
powsta ń
podłu g</w>
ogląd ał</w>
na ły</w>
Wołodyj owski</w>
For t</w>
zachod nie</w>
wsz ych</w>
współczes ne</w>
wid no
stry j</w>
na utów</w>
kry je</w>
dział ała</w>
188 8</w>
zazd ros
przesz li</w>
książę ta</w>
e wi
dare mnie</w>
cien ce</w>
Naro dzenia</w>
stop nie</w>
przyjaciół ki</w>
nog a</w>
nie znany</w>
krawę dzi</w>
il ością</w>
h t
se minarium</w>
róż nic</w>
r to</w>
prag nęła</w>
poci sk</w>
ow nik</w>
oce ny</w>
nie przytom
me dal
lubi ą</w>
ko du</w>
bra ły</w>
wód ki</w>
nagł e</w>
ma sie</w>
ma nie
b ry</w>
ał ki</w>
świe że</w>
wyż szym</w>
wschod nią</w>
lo dzie</w>
hała s</w>
albu my</w>
Histor ii</w>
śpie wała</w>
ś nia</w>
z większa</w>
reprezen tował</w>
re pu
ratu nku</w>
jaz z
arty ści</w>
ślu bu</w>
Ś nie
zg roz
wy szło</w>
we ź</w>
s mę
po ń
om ów</w>
kompu tera</w>
dro gach</w>
и й</w>
żał os
wczes nych</w>
swo ja</w>
licz nym</w>
która ś</w>
g la
A gat
ż nie</w>
zi o</w>
uniwer sal
run dy</w>
na stąpić</w>
czy my</w>
cz ało</w>
bun t</w>
ape ty
Ra fa
K ode
Ce zar</w>
A mi
A de
v el</w>
star cie</w>
roz to
pią tej</w>
m obi
kap licz
c oś
Wschod nich</w>
W od
Pau la</w>
Mo że</w>
Gó rach</w>
F is
zapo biec</w>
te ologii</w>
narodow y</w>
gnia zda</w>
do my
cy na</w>
bogat ych</w>
L il
K er
Ja s
wy trzymać</w>
wspól ną</w>
sła ch</w>
pseudo nim</w>
pole cenia</w>
osią ga</w>
nie chętnie</w>
god nego</w>
aktor ów</w>
występ ów</w>
wy dłuż
war ko
pacjen tów</w>
nie wielkim</w>
Komi sja</w>
żą dać</w>
zażąd ał</w>
y t</w>
postanowi łem</w>
obc ym</w>
literac kich</w>
kory ta
defini cji</w>
zgroma dzenie</w>
za interesow
wy powiad
płó t
pozost ają</w>
parlamentar nych</w>
nauczy cieli</w>
mi zer
gór ą</w>
b owe</w>
ani me</w>
Medi o
usta wodaw
opan ce
e b
bez wied
A P</w>
18 0</w>
że niach</w>
ło żyć</w>
za kli
sukce su</w>
nie dawna</w>
ni ali</w>
naci skiem</w>
mien nych</w>
kola n</w>
hiszpa ńskiej</w>
c ali</w>
bol u</w>
.or g</w>
średniowie cza</w>
ze gar</w>
wycof ał</w>
wprowadz a</w>
smut no</w>
k en</w>
har cer
far tu
dy by</w>
bi te
O .</w>
Com pany</w>
B om
zachow ała</w>
wykształ cenie</w>
ul u</w>
sprze czne</w>
prowadz ący</w>
otwar ta</w>
kandy da
gwa r</w>
cz ość</w>
N ot
świą t</w>
za powiad
t w
rozpoczę ło</w>
og rze
mi nął</w>
krzy żem</w>
be j
szep tem</w>
pła kał</w>
prze żył</w>
prac ują</w>
o rami</w>
o le</w>
ni ających</w>
O g
E mili
ukaza ły</w>
spot kali</w>
sko ku</w>
podat ków</w>
ow od
krę cił</w>
Lotaryn gia</w>
Alberty ny</w>
zni szczeniu</w>
w skrze
tal nej</w>
ra m
powi at
pią ty</w>
ode z
ne u
na chy
kli matu</w>
głębo kiej</w>
esk or
dż un
dat ę</w>
Ho use</w>
wied ź</w>
w ty
sie kie
rozpoczę cia</w>
nic ka</w>
i nie</w>
ali zmu</w>
R ud
przywód ców</w>
prezbi terium</w>
oficjal ny</w>
obc ego</w>
niedź wie
natych miast
mode le</w>
m ł
e p</w>
ch en</w>
cesa rz
Mar k</w>
G dzie</w>
zato pi
wymieni ć</w>
wah ał</w>
ty fikacji</w>
stą pienia</w>
smut kiem</w>
rze tel
oznaj mił</w>
li stą</w>
l anych</w>
jsz a</w>
dzi my</w>
chrześcija ństwo</w>
biał ymi</w>
R on
I t</w>
A n</w>
ży jący</w>
wło skich</w>
wszel ka</w>
star emu</w>
społe czną</w>
przypomi nam</w>
pie kła</w>
nagra nia</w>
moc ny</w>
da mie</w>
chrześcija ńskich</w>
K un
zgin ąć</w>
wykorzy stanie</w>
ucie ka
tra wie</w>
tech niczne</w>
sze m
spra wo
społe czność</w>
pła cze</w>
precy zy
kolej owych</w>
encyklope dy
at ki</w>
Wę gier
róż ni
przysz łych</w>
pa ńskie</w>
odpowied niej</w>
nau czania</w>
nag ry
my l
jezi or</w>
in s</w>
I wan
Ban ku</w>
obja wów</w>
naukow ców</w>
i ku</w>
h ul
gra maty
Sz ar
PK P</w>
Am ster
za opatrz
wy staw
wa szą</w>
vi s</w>
służ ąca</w>
prze pełni
powta rza</w>
pod ając</w>
nie speł
istnie jące</w>
doświad cz
a e
Po morza</w>
Mist rza</w>
Hal l</w>
wi r</w>
termi nu</w>
s prowadzić</w>
roz dar
radzie cki</w>
nastep nie</w>
nast ej</w>
mu ś</w>
biał ka</w>
włó k
tłuma czenie</w>
rodzi ła</w>
odzy skać</w>
nios ą</w>
najlep sza</w>
mecha ni
magazy n</w>
cz ników</w>
Warsza wskim</w>
zapi su</w>
robi li</w>
póź niejszy</w>
nic tw</w>
kor pu
ko rzenie</w>
klasy cznej</w>
got owi</w>
god nych</w>
dyplo maty
archite kt</w>
W niebow
żąd a</w>
y e
wład cą</w>
widzi ano</w>
puści li</w>
prowadzi ło</w>
no w</w>
ku ku
krzy knęła</w>
Przy ja
189 1</w>
peł nych</w>
oficjal nej</w>
odej ściu</w>
cza sow
promieni owanie</w>
postanowie nie</w>
od prowadz
nie niami</w>
l ady</w>
dowie ść</w>
dotar ła</w>
U ru
świe tnie</w>
u bezpie
sz tan
mi ono</w>
ekono mii</w>
ber gu</w>
R F
ku piec</w>
de pe
bi scy
We hr
Pa ki
O chro
zi mną</w>
przy chodził</w>
p R
ot chła
dostrze c</w>
bada czy</w>
Powie trz
ż onym</w>
Ży dow
wydoby ł</w>
sz wad
samot nie</w>
re l</w>
pokole nie</w>
poję ciem</w>
gi ne
dowci p
Jugosławi i</w>
zostawi ając</w>
stara ła</w>
rzy sz</w>
prze chy
ma sk
lo r</w>
kowi cz</w>
gor ące</w>
dowie działem</w>
bri dge</w>
Man che
Kar pa
wa lić</w>
st wami</w>
skło nił</w>
s fery</w>
rob ota</w>
odwie dzić</w>
nie wielkich</w>
mężczyz ną</w>
mę czar
lon dy
le ków</w>
i ce</w>
Rosja nie</w>
179 4</w>
zabra kło</w>
wer sjach</w>
u ty</w>
teledy sk</w>
sej m</w>
równa nie</w>
ros ło</w>
potrzeb na</w>
myś lach</w>
mniejsz ej</w>
ko per
h m</w>
g s</w>
bo ć</w>
b nej</w>
Rzy m
wykorzy stać</w>
wese le</w>
słab ość</w>
państw owe</w>
me d</w>
f o</w>
chorob ą</w>
Lu i
G rzy
ło sko
zna d</w>
wz orem</w>
wiel moż
opis ane</w>
m rok</w>
albu mów</w>
I talii</w>
ży czenie</w>
trud na</w>
sta wy</w>
południ owego</w>
pomie ścić</w>
cz owa</w>
cu dem</w>
Wspó l
Le k
wewnętrz ny</w>
pro mieni</w>
po ście
mar twi
lubi ć</w>
lek kim</w>
koncer tu</w>
k j</w>
jednost kę</w>
jech ałem</w>
do prowadziła</w>
bied ne</w>
To mek</w>
żar tob
ś l</w>
wła dzą</w>
służ b</w>
staro ści</w>
rozgryw ki</w>
radzie ckie</w>
nagra ny</w>
history cznej</w>
g nął</w>
fabry ka</w>
ele mentar
ch wały</w>
ch owi</w>
Politech niki</w>
powiedzi ano</w>
op ę
handl owych</w>
by c</w>
Sar a</w>
zi n</w>
ze brał</w>
teor ie</w>
t ie
spor towy</w>
re ag
nie obecności</w>
krót ką</w>
Wz gó
Wi r
Od ry</w>
Ja mesa</w>
łod y
u szczęśli
popular na</w>
bra mie</w>
A .
188 7</w>
Ł om
wy biera</w>
w ką</w>
py tam</w>
przed mie
ob chod
me l</w>
e c
dziedzi ńcu</w>
be zd
Pra wo
Jo anna</w>
Jan em</w>
Amery ka
186 1</w>
wer sją</w>
su ma</w>
sied mi
re st
powtarz am</w>
poja zdu</w>
piór o</w>
pan ować</w>
mi sty
dr ich</w>
Li dze</w>
Kry sty
ś o
łam ał</w>
sty czeń</w>
rozgry wa</w>
pró g</w>
przedmi ot
podobie ństwa</w>
nę łam</w>
kę dy</w>
koście lnych</w>
got r
general nego</w>
g nie</w>
co u
cho le
zna w
speł nić</w>
proje kty</w>
oce anu</w>
lot niczej</w>
bi t</w>
aktyw ność</w>
wido czny</w>
trady cja</w>
sz pad
skó ra</w>
po że
mow anych</w>
ju niorów</w>
b ła</w>
ad wo
Mał o
spostrze głem</w>
powo zu</w>
organi zmów</w>
odzwier cie
nau ką</w>
najbliż szych</w>
gdzie ż</w>
O ne</w>
I R
weso łe</w>
otwo rzyły</w>
in ż</w>
a bo</w>
te matem</w>
stanowi li</w>
pa sie</w>
og rodz
m ści
królew ska</w>
gospodar czych</w>
cha ni
a cie</w>
S toli
E R
zdob i
tra sę</w>
t ty</w>
sta po</w>
rozu mem</w>
publicy sta</w>
po niósł</w>
pa so
kryzy s</w>
gra li</w>
zasłu guje</w>
za wód</w>
wykona niu</w>
wspo mi
sob otę</w>
roz miary</w>
prze m
och rz
l ała</w>
drugie mu</w>
ata ków</w>
188 5</w>
proble mem</w>
na my
mon u
leż ało</w>
jas nym</w>
g ając</w>
Jadwi gi</w>
J im
ziel onych</w>
z gar
y to</w>
wro ta</w>
ukaza ło</w>
studen t</w>
spokoj nym</w>
poci ski</w>
p sze
ośrod ka</w>
doskona łe</w>
awans ował</w>
H MS</w>
Chrz ci
zmy sły</w>
założy cielem</w>
zanie czy
szwe dzkiego</w>
poczu cia</w>
okro tnie</w>
nię tej</w>
kryty ka</w>
ga z</w>
d ł
cał ymi</w>
Zby szko</w>
Pen cro
L and
wykony wane</w>
roz strzel
prze stra
na y</w>
li no
ko dy
ch ór</w>
boga ctwo</w>
ar ku
Mi r
2 6
tajem nica</w>
pew ni</w>
odd ała</w>
na wy</w>
dwor ca</w>
ży wą</w>
Że laz
wil k</w>
po jazd</w>
mi j</w>
koszu li</w>
Ma ha
Arysto tele
Ży cia</w>
zdoby ciu</w>
wul ka
uwol nić</w>
ry sow
ra y</w>
odd ano</w>
kow em</w>
in ów</w>
amat or
7 4
sz kar
społe cznym</w>
sió str</w>
m ró
lu tera
funkcjon uje</w>
Si kor
D P</w>
za ć
s ot
qu es</w>
odwie dz
lin ki</w>
go s</w>
Mosk wa</w>
5 0
zwrac ał</w>
zapo bie
wy rzekł</w>
uświad omi
t ano</w>
lę k</w>
dziw u</w>
chci ały</w>
tera pii</w>
radzie ckiej</w>
krzy czeć</w>
ka mer
bun tow
Ch od
woj u</w>
w lok
ry j
przy pły
mieszka ją</w>
klu bem</w>
cjonal ne</w>
I wan</w>
ża gl
świade ctwo</w>
w skroś</w>
su che</w>
ster u</w>
sa d</w>
pra sy</w>
poń czo
posiad ający</w>
mię śni</w>
leka rze</w>
h r</w>
wid mo</w>
ru ma
pa z
osob ami</w>
hrab stwie</w>
bł ot
ba se
Li ber
Jan usza</w>
Chi ny</w>
za prz
roz grze
ogrom nej</w>
ad em</w>
Bernar d</w>
w tenczas</w>
sal on</w>
roz głoś
re mu</w>
pomag ał</w>
państ wach</w>
męż owi</w>
f fe
do staw
ab sor
Ma le
zg ni
ze sa</w>
rozwi nął</w>
o nie
moc ne</w>
głębo ka</w>
Ri o</w>
D d</w>
zer wała</w>
zam on
wie że</w>
pomyśl ałem</w>
namięt ność</w>
miejsc owej</w>
inter fe
i ra
gro na</w>
elektro magne
dźwię ków</w>
cyj no</w>
ch en
Ph il
znalazł szy</w>
wol ał</w>
szy sz</w>
stra cić</w>
s ha
produ kty</w>
powszech nego</w>
pow raca</w>
or gi
nad chodz
im pon
gór ski</w>
dy ry
at ra
apara t</w>
P T
Mi łos
A wi
że sz</w>
zbi orze</w>
wzniesi ono</w>
mu rze</w>
kwa ś
ka pu
gra ją</w>
be ż</w>
Christ o</w>
wło s</w>
szcz ony</w>
roz ciąga</w>
potę gę</w>
po dz
i ry
M aja</w>
wod ny</w>
uzna ne</w>
u nii</w>
u lo
pra wami</w>
Ro mana</w>
N S
B am
z ow
występ ujących</w>
vi ć</w>
tematy ce</w>
pi sząc</w>
nia ki</w>
dostęp na</w>
Konstytu cji</w>
zuch wal
wej ściu</w>
otwar tych</w>
opuści li</w>
mor skiego</w>
m ającą</w>
je zie
efe kty</w>
dobro ć</w>
chorąg wi</w>
choro bie</w>
8 .
zuch wał
zaw czasu</w>
wydaw nictwo</w>
waż niejsze</w>
uśmie chał</w>
utwo rzył</w>
fa scy
dol noślą
a ero
zagro żenie</w>
za rząd</w>
z c
wój t</w>
uży ciem</w>
sko k</w>
pla suje</w>
p ce</w>
kapła na</w>
będ ącej</w>
bli skie</w>
M ost
włó czę
wypły wa</w>
sil nego</w>
komendan t</w>
fla gi</w>
ce i</w>
Ed mund</w>
w ś
twier dzenia</w>
odpowied niego</w>
maz ur
in kwizy
fał sz
P ala
zapro sił</w>
zależ nie</w>
wydaw nictwa</w>
skład ała</w>
rośli na</w>
rocz nicę</w>
pło mieni
od osob
instru mentów</w>
g rą</w>
dze niach</w>
czerw onego</w>
ci ół</w>
G wi
t onów</w>
prze twarz
najważ niejszym</w>
gie ł</w>
S kan
Bal za
zegar ek</w>
tro je</w>
sy g
sprzymie rze
row ym</w>
ra ci</w>
przy leg
pi sk
lot y
ci ał
Le cha</w>
D że
wąt pię</w>
v ie
sklep ów</w>
pol sce</w>
pię tro</w>
narzę dzie</w>
które jś</w>
о л
następ ujący</w>
mar szu</w>
informa cję</w>
Se wery
S łone
świe ci</w>
stadi onie</w>
producen ta</w>
naj więk
m nich</w>
f le
e y</w>
dot rzy
Z ar
S her
Pla y
Krzy ż
K lub</w>
Dro gi</w>
D nia</w>
świad czą</w>
zbudow ał</w>
stru mień</w>
przeciw stawi
ogól nego</w>
muzy czna</w>
je ni</w>
d resz
czy niła</w>
cie śni
U E</w>
Ja gu
Czerw onego</w>
zarządz ania</w>
nie śmiał
ne og
li ter</w>
lan ą</w>
konkur s</w>
fe sti
domow e</w>
Zgroma dzenia</w>
Nie podległ
Ka s
Ata naz
188 4</w>
Łuka sz</w>
za li</w>
pie rzch
oś wi
fi kowany</w>
c oby</w>
Sta ś</w>
znacz ąco</w>
ud ając</w>
star sza</w>
spół ka</w>
skłon ności</w>
ral na</w>
r .
przywód cy</w>
magazy nu</w>
le czenie</w>
kolej nego</w>
g owym</w>
die go</w>
bal l</w>
Wi ktora</w>
S pół
Ru chu</w>
Me t
ż ę
poszuki waniu</w>
podstaw owej</w>
pisa mi</w>
mle ko</w>
ja kość</w>
daw ano</w>
Tur ków</w>
K u</w>
zgry z
pen hau
hu mor</w>
elektry cznego</w>
C óż</w>
wzi ąłem</w>
wy mierz
swo ist
skoń czyło</w>
rzuc ać</w>
rozu mi
diece zja</w>
cj o
ban ku</w>
Kar l</w>
świąty ń</w>
ł ęd
za sil
umie ścił</w>
ple mię</w>
dłu gotr
dob ra
chi ński</w>
at o</w>
wewnętrz ną</w>
poch ła
os ł
natural ną</w>
min .</w>
mi ja</w>
konkur su</w>
boj owych</w>
adi ut
Fran ce</w>
E ej</w>
B run
usprawied liwi
stra j
pa lił</w>
o pe
ni an</w>
li ńskiego</w>
bie dy</w>
Mich ał
roz są
k su
cząste czki</w>
cesa rzem</w>
ół ek</w>
wybuch ła</w>
rewolu cja</w>
oznacz ało</w>
kadłu ba</w>
cz ąca</w>
PZ PR</w>
za gł
t nik</w>
szcz ów</w>
stru ny</w>
p x</w>
o łowi
ie niu</w>
g ow
ukry te</w>
t hi
re por
ratu nek</w>
por tal</w>
par te</w>
oby czaj</w>
ni ski</w>
In stitu
za leg
wybra nych</w>
s ale</w>
ryzy ko</w>
niebezpie czne</w>
koali cji</w>
Re j
E kono
188 2</w>
zbli żyć</w>
wschod nie</w>
pozwo liło</w>
pow ych</w>
or ę
mi nęło</w>
dziel nic</w>
dy spo
bo kach</w>
b owych</w>
Jo e</w>
zasob ów</w>
wy kazuje</w>
ucz eni</w>
ta tyw
położ onych</w>
dż u
cieka wie</w>
brytyj ska</w>
Spe cjal
Mar ię</w>
Ira ku</w>
zdoł ała</w>
zasad ami</w>
określ ony</w>
li der</w>
gdzie niegdzie</w>
chemi czne</w>
Te raz</w>
Or le
zru j
wy cze
wró ciwszy</w>
t wór</w>
słusz ne</w>
pia sek</w>
mor ski</w>
kompu ter</w>
go rze
ba wi</w>
V ar
U nia</w>
wystą pienia</w>
wyposa żenie</w>
wyobraź nia</w>
ser we
porówna nia</w>
por tów</w>
odzy sk
a ran
Lea gue</w>
G liwi
C H
ż al
wdzię ku</w>
pij any</w>
metod ę</w>
interne towa</w>
Wa g
za urów</w>
v il
sprze dać</w>
prze strasz
oj czyźnie</w>
które m</w>
du mny</w>
cza my</w>
amerykań ską</w>
N owe</w>
La ura</w>
Czar ny</w>
16 0</w>
ubó st
skład ający</w>
maj ora</w>
gle by</w>
dzie cie</w>
cieka wy</w>
ce rzy</w>
Ra dzie</w>
C l
Bran denbur
Anto nio</w>
wywiad ow
prac ujących</w>
o ck
kom an
entu zja
an oni
Ka cz
Fabry cy</w>
ży wi</w>
świ cie</w>
wy stąpić</w>
woł ając</w>
wol ną</w>
prze dłuż
pozwó l</w>
og u</w>
które mi</w>
kro tny</w>
f ro
ak cję</w>
a c</w>
ła nie</w>
ą j</w>
zasad ą</w>
z cy</w>
x ch</w>
wystar cza</w>
war y
struktu r</w>
spot kałem</w>
sięg ają</w>
odpowiad ać</w>
mówi ły</w>
k spi
ja w</w>
gra jąc</w>
go r</w>
aj ą
177 2</w>
ze brać</w>
zdoby wa</w>
za lew
wi oś
ustanowi ł</w>
t ni
na turą</w>
m ura</w>
licz nej</w>
czwar tym</w>
S we
świat owego</w>
telewizy jnych</w>
szero kich</w>
st rą
płu c</w>
pod jąć</w>
organiza cją</w>
gim naz
dziedzi ctwa</w>
cza szki</w>
c le</w>
znik ł</w>
sp łon
kontynen tu</w>
gospodar stwa</w>
fir mie</w>
el la</w>
du chów</w>
Mło dzieży</w>
D ie</w>
1 30</w>
wsz ym</w>
studi o</w>
prze ciągu</w>
ja ku</w>
i ma</w>
S re
Krzy ż</w>
G wiezd
Apol lo</w>
Al fon
w uj
pozostawi ł</w>
posłu g
on t
mistrzy ni</w>
gospodar czego</w>
ch ol
bor y</w>
2 2
186 6</w>
Ł ą
zało żyć</w>
wszech świata</w>
wod u</w>
pły ną</w>
j oł</w>
gospodar cze</w>
fot ografii</w>
czeka j</w>
chow skiej</w>
cho dzenie</w>
abstra k
Sy stem</w>
wyż szą</w>
wier nie</w>
w kład</w>
ud e</w>
re form</w>
od rzucił</w>
mini strów</w>
Mar ie</w>
zamiesz kał</w>
za powie
za dzwo
wy jazd</w>
uczu ci
tłuma czył</w>
ty z
trage dii</w>
pas mo</w>
malar stwa</w>
kawa ler</w>
kami zel
Brz oz
łe mu</w>
zwycięz ca</w>
zawod nicy</w>
kraj owej</w>
ko zy</w>
fizy cznej</w>
demokra cji</w>
ak sami
uli cami</w>
sz t</w>
powa gi</w>
podwó rze</w>
ląd owania</w>
har moni
T U</w>
Ros ją</w>
Pi osen
Macie ja</w>
C li
zga dza</w>
telef on</w>
tele sko
tan cer
nie licznych</w>
na sty</w>
cywi liza
G un
Fron tu</w>
An tek</w>
A v
wyciąg nąć</w>
ta cją</w>
sto jących</w>
pow ej</w>
p po
ocali ć</w>
niespodzi anie</w>
niedo li</w>
ni ną</w>
nau kowy</w>
na ówczas</w>
katastro fa</w>
de t</w>
wą ż</w>
uzy ski
trafi ła</w>
sil nikiem</w>
róż nym</w>
póź niejszego</w>
ode zw
me czy</w>
błęd u</w>
Z dro
za miarem</w>
właści wego</w>
wy da</w>
rów ny</w>
rzymsko katolicki</w>
pamiąt kę</w>
now ane</w>
krót ko
Wehr mach
Ger ma
Ch oj
wyr wać</w>
pół głosem</w>
podnó ża</w>
niezbęd ne</w>
niespeł na</w>
m ani</w>
lep szą</w>
kom pa
kar tof
g ich</w>
bra ter
Micha ela</w>
zwyk łą</w>
wró g</w>
wro giem</w>
trwał e</w>
rzeź ba</w>
przygląd ał</w>
posiad aniu</w>
pojawi ło</w>
od powie</w>
obywate le</w>
ni anych</w>
li ce</w>
dowie dziawszy</w>
brą zu</w>
zna cznym</w>
st one</w>
pięt ra</w>
okrop nie</w>
na da</w>
kompu terów</w>
Wiel kich</w>
zmieni ać</w>
zim ne</w>
za ura</w>
wrac ają</w>
ut ko</w>
upor czy
póź niejsze</w>
odgad nąć</w>
h in
fa wory
do myśl
chwi tz</w>
chci ałabym</w>
Szta bu</w>
ż ur
ver y</w>
tęsk noty</w>
spoko jem</w>
roz ta
przy jeżdż
prze le
nios łem</w>
kan ą</w>
du szpa
Izra el</w>
Gio van
Do ug
świąty nię</w>
ziel onym</w>
wia na</w>
w cze</w>
tworz one</w>
prowa dzeniu</w>
prac ując</w>
kierun kach</w>
dziesię ci
I I
En ter
wo ń</w>
w ce</w>
sta rzy</w>
reper tu
pod danych</w>
po rzucił</w>
państ wu</w>
or gan</w>
kwesti on
eksploata cji</w>
cząste czek</w>
cu kr
bra ćmi</w>
artyle ry
ag lome
Fran k</w>
we zwał</w>
przy gód</w>
pozo rem</w>
nie prawidłow
mor ską</w>
kre śli
kolo rze</w>
kli ka</w>
intu i
ide ę</w>
atmos fery
B ak
wybu chem</w>
wspom niał</w>
tajem niczy</w>
sz oną</w>
otwar cia</w>
ochro ną</w>
naczy ń</w>
lek cje</w>
ar maty</w>
Rzy mskiego</w>
Nie tz
woł ała</w>
widzi cie</w>
su r</w>
pie j</w>
ode szła</w>
naczel nik</w>
grze chy</w>
dochod y</w>
cy z
Wikipe dy
Le szczy
za liczyć</w>
tor ia</w>
pun kt
podstaw ową</w>
para dok
kłopo ty</w>
got owy</w>
du ka
Jor k</w>
Be ł
z bór</w>
woj skiem</w>
w ot
trafi ć</w>
ti ne</w>
sce n</w>
pod ano</w>
po chwycił</w>
ory mber
obej rzeć</w>
nie niach</w>
bez rad
ary t
a niel
Ra y
M W</w>
zajm ująca</w>
wy dłu
w dzie
przeznacz ona</w>
oficjal nym</w>
jednost ką</w>
ing ton</w>
dwó j
Ksen of
K lau
Egip t</w>
zało żyli</w>
wyposa żone</w>
war stwa</w>
wal ne</w>
tre nerem</w>
parti ę</w>
odzy skał</w>
miał bym</w>
kon fi
c nota</w>
Igna cego</w>
G łu
E ar
zbyt nio</w>
to ksy
reprezen tuje</w>
pre mier
ob leg
jas nych</w>
duchow nych</w>
b ły</w>
adwo kat</w>
K ob
szczegól ny</w>
przewod ni
prze chodzą</w>
królew ską</w>
kory tarz</w>
katoli ków</w>
kapł ani</w>
eta p</w>
b ąd
Sz la
9 00</w>
1 10</w>
w ora</w>
szczęśli wym</w>
sin g</w>
rzym skie</w>
produ kowane</w>
neog oty
mu jemy</w>
ko sza
dzisiejsz e</w>
chor ąż
ce gły</w>
bó stwa</w>
U E
Por t
I sa
Hol an
występ y</w>
wiat rem</w>
wi dni
wchodz ącego</w>
s ała</w>
rabi a</w>
prze niosła</w>
oce nić</w>
ne l
laure at</w>
jaw nie</w>
e wange
Al bre
zbli żyła</w>
wymieni onych</w>
wi deo</w>
te maty</w>
star sze</w>
spod nie</w>
skłon ność</w>
oddział ami</w>
od nalaz
nolog ii</w>
kaszte lan</w>
Mi ke</w>
zaję ta</w>
pis mach</w>
o. o.</w>
ma ce
gniaz do</w>
de spoty
U rzędu</w>
Ser bii</w>
Pa na
Ma y
staro ży
re kru
prowadz onych</w>
po jedna
gar dła</w>
Sz tok
Par ti
Co un
tłuma czyć</w>
spoty kane</w>
skle py</w>
pojedy nek</w>
należ ałoby</w>
lor d</w>
hab .</w>
biał og
Republi ce</w>
R ie
Mist rz</w>
A S
zajm ujący</w>
wsi ą</w>
ra bu
obowiąz kiem</w>
cz ącą</w>
ana log
ale i</w>
W ro
Sz kół</w>
Ja sie
E uro</w>
uważ ając</w>
t ha
społe czno</w>
sil nej</w>
rzy wszy</w>
od py
mili on
dla te
Te ksa
E ry
Ber n
ąt ko</w>
zobaczy my</w>
u biegł
t kami</w>
stro ną</w>
przywiąza nie</w>
mę skie</w>
licz na</w>
cieka wością</w>
zawar ty</w>
usz ach</w>
ty lo
s prowadził</w>
pogrze b</w>
miesz kali</w>
mi ota
lekko myśl
k owaniu</w>
dale kiej</w>
Rzeczpospoli ta</w>
O patrz
Ja wo
Europej skiego</w>
9 0.</w>
za sie
wag onów</w>
skar gi</w>
przeby wa</w>
do zwol
cie ni
bezpośred nim</w>
G rod
ła d</w>
wytwa rza</w>
woje wody</w>
wizer unek</w>
stał ej</w>
powod y</w>
pokona ła</w>
pogar d
pi wo</w>
no zd
miej ska</w>
gwał tem</w>
Su ł
Prze z</w>
Ka śka</w>
8 0.</w>
ślad ów</w>
uży wanie</w>
ter s</w>
ru p
rach unku</w>
przygot ować</w>
[...]
